<pad>	0
<unk>	0
<s>	0
</s>	0
▁t	-0
he	-1
ou	-2
▁a	-3
in	-4
re	-5
▁w	-6
▁s	-7
▁I	-8
on	-9
ha	-10
▁y	-11
▁the	-12
▁m	-13
▁you	-14
▁b	-15
ve	-16
ll	-17
▁d	-18
is	-19
ing	-20
▁c	-21
it	-22
an	-23
▁f	-24
▁to	-25
▁g	-26
or	-27
er	-28
▁l	-29
hat	-30
nd	-31
▁T	-32
▁n	-33
ow	-34
▁W	-35
▁p	-36
ot	-37
om	-38
..	-39
ed	-40
st	-41
en	-42
▁o	-43
et	-44
ar	-45
▁he	-46
▁h	-47
le	-48
▁Y	-49
at	-50
▁th	-51
▁S	-52
▁A	-53
▁in	-54
ay	-55
▁of	-56
▁ha	-57
▁be	-58
es	-59
▁it	-60
▁H	-61
▁me	-62
as	-63
▁You	-64
▁on	-65
gh	-66
id	-67
▁is	-68
▁that	-69
ck	-70
ld	-71
▁we	-72
▁k	-73
▁and	-74
im	-75
▁u	-76
▁e	-77
se	-78
ke	-79
ri	-80
ut	-81
▁M	-82
ght	-83
▁The	-84
al	-85
▁for	-86
▁B	-87
oo	-88
ver	-89
▁do	-90
out	-91
...	-92
▁D	-93
ad	-94
ill	-95
▁C	-96
ce	-97
▁re	-98
▁your	-99
▁N	-100
ome	-101
▁st	-102
▁my	-103
ir	-104
▁We	-105
▁this	-106
▁have	-107
▁not	-108
▁li	-109
▁go	-110
▁G	-111
am	-112
ust	-113
ch	-114
▁L	-115
▁O	-116
ly	-117
▁He	-118
▁kn	-119
ith	-120
▁was	-121
▁It	-122
ent	-123
ion	-124
▁are	-125
▁an	-126
▁can	-127
ould	-128
▁ne	-129
▁se	-130
▁know	-131
▁with	-132
her	-133
all	-134
ro	-135
▁j	-136
▁P	-137
ct	-138
▁don	-139
ant	-140
ur	-141
ra	-142
ho	-143
ea	-144
▁here	-145
▁What	-146
▁him	-147
▁And	-148
▁get	-149
if	-150
▁what	-151
ake	-152
ack	-153
▁all	-154
▁F	-155
hing	-156
▁out	-157
▁as	-158
▁sh	-159
one	-160
▁up	-161
ic	-162
our	-163
▁R	-164
and	-165
op	-166
▁like	-167
un	-168
▁ri	-169
▁de	-170
▁at	-171
▁will	-172
ry	-173
▁ab	-174
ter	-175
▁just	-176
▁E	-177
▁J	-178
▁there	-179
▁so	-180
ook	-181
ive	-182
ore	-183
▁wor	-184
▁want	-185
ood	-186
pp	-187
▁got	-188
ight	-189
ind	-190
ge	-191
▁right	-192
▁That	-193
rom	-194
il	-195
▁did	-196
ink	-197
ell	-198
very	-199
han	-200
us	-201
ie	-202
▁about	-203
▁lo	-204
▁they	-205
▁No	-206
▁one	-207
▁us	-208
▁al	-209
own	-210
▁r	-211
other	-212
▁her	-213
art	-214
▁man	-215
ee	-216
▁su	-217
na	-218
▁back	-219
▁no	-220
▁whe	-221
▁now	-222
▁Th	-223
▁sa	-224
ate	-225
ast	-226
▁from	-227
▁com	-228
ain	-229
▁But	-230
▁any	-231
au	-232
▁his	-233
▁see	-234
▁think	-235
od	-236
hy	-237
ig	-238
ss	-239
fe	-240
ime	-241
▁but	-242
ist	-243
rou	-244
ong	-245
▁them	-246
uck	-247
ol	-248
▁if	-249
▁some	-250
ess	-251
ally	-252
ame	-253
ble	-254
▁who	-255
▁need	-256
IN	-257
ers	-258
ak	-259
ear	-260
▁say	-261
nt	-262
▁K	-263
▁going	-264
▁pl	-265
▁This	-266
▁our	-267
way	-268
hi	-269
ul	-270
onna	-271
▁time	-272
▁They	-273
are	-274
um	-275
▁gonna	-276
▁So	-277
▁she	-278
▁would	-279
ice	-280
qu	-281
ine	-282
ation	-283
em	-284
▁look	-285
▁or	-286
▁gu	-287
▁good	-288
▁ex	-289
▁sp	-290
▁con	-291
▁been	-292
ase	-293
▁down	-294
ort	-295
ide	-296
ard	-297
▁come	-298
ING	-299
▁If	-300
▁How	-301
▁take	-302
itt	-303
▁too	-304
▁could	-305
▁Do	-306
▁ag	-307
▁were	-308
▁St	-309
▁1	-310
ven	-311
▁Whe	-312
▁has	-313
ure	-314
alk	-315
omet	-316
▁off	-317
▁She	-318
▁bo	-319
ab	-320
▁tell	-321
ap	-322
▁had	-323
ag	-324
▁pro	-325
▁Well	-326
▁thing	-327
lo	-328
▁every	-329
thing	-330
▁way	-331
▁There	-332
eah	-333
▁when	-334
▁love	-335
end	-336
▁call	-337
lf	-338
▁by	-339
▁let	-340
▁Don	-341
ick	-342
▁Oh	-343
▁day	-344
▁somet	-345
▁v	-346
▁how	-347
▁int	-348
ect	-349
kay	-350
lease	-351
▁am	-352
ause	-353
▁should	-354
red	-355
▁work	-356
nder	-357
eop	-358
▁never	-359
ittle	-360
eople	-361
th	-362
ous	-363
▁My	-364
▁Let	-365
▁tr	-366
▁something	-367
ity	-368
▁kill	-369
▁more	-370
ace	-371
▁pre	-372
iss	-373
▁make	-374
ady	-375
▁mo	-376
reat	-377
▁guy	-378
▁lea	-379
age	-380
ree	-381
▁fuck	-382
▁br	-383
ies	-384
▁didn	-385
▁V	-386
▁happ	-387
▁en	-388
ond	-389
cause	-390
▁only	-391
▁little	-392
▁people	-393
ber	-394
est	-395
ound	-396
▁Yeah	-397
el	-398
▁All	-399
▁le	-400
▁Hey	-401
▁Why	-402
▁bl	-403
▁qu	-404
▁over	-405
os	-406
▁then	-407
▁find	-408
▁than	-409
wo	-410
urn	-411
ather	-412
▁talk	-413
▁Now	-414
▁give	-415
▁life	-416
▁year	-417
▁Come	-418
ving	-419
ans	-420
▁bu	-421
ite	-422
ob	-423
ass	-424
▁af	-425
lp	-426
ait	-427
▁Get	-428
▁really	-429
ew	-430
per	-431
ire	-432
▁mu	-433
les	-434
eep	-435
▁ar	-436
▁Is	-437
▁Not	-438
▁bet	-439
OU	-440
ac	-441
▁co	-442
▁U	-443
▁does	-444
▁where	-445
self	-446
ting	-447
▁again	-448
▁said	-449
▁un	-450
▁sec	-451
▁2	-452
▁sc	-453
▁Are	-454
ep	-455
ip	-456
orry	-457
get	-458
▁doing	-459
▁Just	-460
▁much	-461
▁home	-462
▁very	-463
00	-464
▁On	-465
▁into	-466
ave	-467
ue	-468
▁Mr	-469
▁ro	-470
ang	-471
▁two	-472
ft	-473
▁their	-474
▁comp	-475
▁Where	-476
▁In	-477
▁boy	-478
▁help	-479
ord	-480
▁car	-481
fore	-482
▁still	-483
ody	-484
▁ask	-485
▁new	-486
▁under	-487
▁po	-488
▁thou	-489
eel	-490
▁must	-491
▁Be	-492
irst	-493
round	-494
▁sir	-495
▁happen	-496
ning	-497
be	-498
▁long	-499
▁even	-500
▁Look	-501
▁world	-502
▁Who	-503
row	-504
▁im	-505
▁other	-506
▁Go	-507
▁why	-508
ade	-509
ty	-510
▁Yes	-511
▁these	-512
▁bel	-513
▁away	-514
▁mar	-515
riend	-516
▁mean	-517
▁pr	-518
▁years	-519
ER	-520
AN	-521
▁chan	-522
▁won	-523
day	-524
irl	-525
▁Your	-526
ose	-527
▁before	-528
▁son	-529
▁-	-530
ment	-531
▁cl	-532
ways	-533
▁sure	-534
▁hand	-535
ks	-536
atch	-537
▁feel	-538
ff	-539
▁wait	-540
ach	-541
▁stop	-542
▁leave	-543
ise	-544
▁father	-545
ish	-546
▁rem	-547
▁anything	-548
▁night	-549
▁girl	-550
ci	-551
▁God	-552
▁tra	-553
ta	-554
▁first	-555
ull	-556
▁Can	-557
ny	-558
ud	-559
ieve	-560
oney	-561
▁fucking	-562
pt	-563
ident	-564
▁keep	-565
▁please	-566
ouse	-567
▁old	-568
▁last	-569
▁after	-570
▁always	-571
▁sw	-572
▁try	-573
▁friend	-574
▁wr	-575
ance	-576
▁ever	-577
ough	-578
▁okay	-579
▁thought	-580
body	-581
ater	-582
▁care	-583
old	-584
▁'	-585
▁name	-586
▁ac	-587
▁dr	-588
▁Did	-589
ily	-590
▁TH	-591
av	-592
▁YOU	-593
▁sorry	-594
ount	-595
ory	-596
▁done	-597
▁live	-598
▁min	-599
▁because	-600
iz	-601
har	-602
▁start	-603
▁better	-604
ons	-605
▁act	-606
▁chi	-607
▁stay	-608
ried	-609
▁put	-610
▁res	-611
▁coming	-612
▁Okay	-613
▁show	-614
dd	-615
▁miss	-616
▁To	-617
▁told	-618
▁For	-619
ng	-620
ian	-621
able	-622
isten	-623
rough	-624
▁Then	-625
▁When	-626
▁big	-627
aking	-628
ath	-629
▁well	-630
▁dead	-631
▁whi	-632
aby	-633
act	-634
port	-635
▁ass	-636
▁may	-637
▁place	-638
▁Than	-639
▁guys	-640
▁around	-641
▁believe	-642
ON	-643
▁came	-644
▁those	-645
ank	-646
▁run	-647
▁money	-648
side	-649
▁through	-650
ary	-651
▁As	-652
▁nothing	-653
▁har	-654
up	-655
ife	-656
▁part	-657
▁own	-658
▁plan	-659
▁things	-660
LL	-661
ember	-662
▁hell	-663
ia	-664
ence	-665
▁head	-666
▁real	-667
▁kid	-668
ower	-669
▁Please	-670
▁war	-671
ool	-672
▁left	-673
hed	-674
ign	-675
▁exp	-676
▁shit	-677
▁dis	-678
int	-679
▁job	-680
ike	-681
▁men	-682
▁underst	-683
aught	-684
ful	-685
ions	-686
▁cle	-687
▁die	-688
▁per	-689
▁att	-690
▁move	-691
▁minut	-692
▁sm	-693
ated	-694
▁lot	-695
▁turn	-696
▁great	-697
RE	-698
▁wom	-699
▁brother	-700
orm	-701
▁made	-702
urt	-703
▁fl	-704
ail	-705
▁Br	-706
eak	-707
oll	-708
ress	-709
▁mon	-710
▁hear	-711
less	-712
▁clo	-713
▁te	-714
▁meet	-715
AT	-716
▁Am	-717
▁bit	-718
▁cont	-719
xt	-720
▁sha	-721
ever	-722
cle	-723
▁supp	-724
ren	-725
▁bus	-726
▁ra	-727
▁May	-728
▁Al	-729
▁Every	-730
aw	-731
ret	-732
▁everything	-733
▁understand	-734
CK	-735
▁Ch	-736
▁Sh	-737
▁gr	-738
▁saw	-739
▁mind	-740
▁might	-741
▁looking	-742
cent	-743
ander	-744
▁today	-745
▁3	-746
og	-747
res	-748
▁mother	-749
▁Good	-750
AR	-751
oth	-752
▁bad	-753
▁che	-754
ES	-755
ible	-756
▁cr	-757
▁di	-758
here	-759
▁being	-760
▁doesn	-761
▁getting	-762
▁kind	-763
ark	-764
▁...	-765
▁comm	-766
amn	-767
▁hu	-768
▁mom	-769
▁ser	-770
▁sur	-771
▁child	-772
▁second	-773
▁someone	-774
ious	-775
▁gotta	-776
▁Because	-777
▁another	-778
ost	-779
▁found	-780
▁enough	-781
▁Dad	-782
▁fight	-783
OR	-784
▁el	-785
▁wrong	-786
ah	-787
ors	-788
ved	-789
▁fam	-790
▁bring	-791
--	-792
akes	-793
▁One	-794
▁bre	-795
▁sho	-796
▁baby	-797
pen	-798
▁end	-799
pe	-800
▁wanted	-801
my	-802
ne	-803
▁ey	-804
blem	-805
▁fin	-806
▁tri	-807
▁remember	-808
air	-809
als	-810
▁cra	-811
▁Take	-812
▁hour	-813
▁talking	-814
▁fine	-815
ps	-816
▁id	-817
▁cour	-818
eet	-819
ove	-820
ister	-821
▁ph	-822
anna	-823
▁pay	-824
▁str	-825
iness	-826
▁house	-827
▁problem	-828
▁yourself	-829
man	-830
▁rec	-831
ready	-832
▁hard	-833
▁three	-834
ger	-835
▁Se	-836
▁wife	-837
ax	-838
▁sl	-839
▁dad	-840
▁Thank	-841
▁5	-842
ually	-843
▁ad	-844
▁far	-845
▁many	-846
▁heart	-847
▁Some	-848
▁else	-849
▁lost	-850
▁dec	-851
aut	-852
▁use	-853
▁wee	-854
igh	-855
ild	-856
come	-857
ream	-858
▁Have	-859
▁Or	-860
▁Here	-861
▁same	-862
▁woman	-863
rag	-864
▁already	-865
▁happened	-866
orn	-867
ings	-868
▁app	-869
▁Tell	-870
▁power	-871
let	-872
▁em	-873
▁hold	-874
▁play	-875
ope	-876
ott	-877
▁speak	-878
▁family	-879
gether	-880
▁fun	-881
▁gone	-882
▁next	-883
▁pres	-884
ix	-885
cess	-886
ollow	-887
▁pass	-888
▁cha	-889
▁dif	-890
ars	-891
ile	-892
▁pol	-893
atter	-894
▁seen	-895
▁killed	-896
ub	-897
ict	-898
ince	-899
▁mor	-900
aster	-901
▁best	-902
▁ready	-903
ves	-904
▁isn	-905
▁listen	-906
▁without	-907
oy	-908
lex	-909
imes	-910
▁dri	-911
▁eat	-912
▁together	-913
▁hum	-914
▁ch	-915
▁knew	-916
▁went	-917
cy	-918
▁Jo	-919
▁THE	-920
iv	-921
een	-922
▁beaut	-923
▁trying	-924
▁Sir	-925
▁wanna	-926
▁business	-927
▁des	-928
erson	-929
▁days	-930
▁watch	-931
▁course	-932
▁took	-933
aughter	-934
▁4	-935
ens	-936
leep	-937
▁Give	-938
mor	-939
▁Re	-940
where	-941
▁wasn	-942
▁blood	-943
▁whole	-944
att	-945
rest	-946
tain	-947
▁hurt	-948
ron	-949
ling	-950
ward	-951
▁hit	-952
▁Like	-953
▁soon	-954
ple	-955
▁face	-956
▁alone	-957
▁called	-958
med	-959
▁ago	-960
▁rest	-961
▁Maybe	-962
ug	-963
▁ord	-964
▁Alex	-965
▁prom	-966
▁resp	-967
▁stand	-968
▁10	-969
▁With	-970
▁saying	-971
▁ship	-972
ntil	-973
▁pri	-974
▁quest	-975
so	-976
▁ent	-977
▁set	-978
▁Jack	-979
▁month	-980
▁minutes	-981
iful	-982
▁cho	-983
ition	-984
▁prot	-985
ier	-986
▁ON	-987
▁hat	-988
▁nice	-989
▁word	-990
▁Un	-991
uth	-992
ared	-993
▁Sha	-994
▁most	-995
▁alive	-996
▁attack	-997
▁inside	-998
fect	-999
▁few	-1000
▁met	-1001
▁At	-1002
▁count	-1003
▁heard	-1004
any	-1005
ird	-1006
▁says	-1007
▁which	-1008
▁morning	-1009
▁daughter	-1010
IS	-1011
ru	-1012
hes	-1013
▁gl	-1014
ical	-1015
unch	-1016
▁cou	-1017
onder	-1018
▁wants	-1019
GH	-1020
▁Any	-1021
▁ain	-1022
▁used	-1023
ms	-1024
▁sit	-1025
▁once	-1026
▁change	-1027
▁myself	-1028
▁Will	-1029
▁Sp	-1030
▁Right	-1031
▁wouldn	-1032
ung	-1033
cept	-1034
▁air	-1035
▁gun	-1036
▁ret	-1037
▁yet	-1038
▁deal	-1039
▁fall	-1040
▁late	-1041
▁open	-1042
▁guess	-1043
▁sleep	-1044
▁.	-1045
cks	-1046
ery	-1047
hite	-1048
▁beg	-1049
▁idea	-1050
▁king	-1051
▁Ex	-1052
▁WH	-1053
ross	-1054
▁eyes	-1055
▁mess	-1056
▁room	-1057
▁such	-1058
▁drink	-1059
▁hands	-1060
▁phone	-1061
▁matter	-1062
▁beautiful	-1063
EA	-1064
IC	-1065
dy	-1066
ash	-1067
▁acc	-1068
▁ter	-1069
▁win	-1070
▁pret	-1071
▁death	-1072
▁person	-1073
▁friends	-1074
ense	-1075
▁Com	-1076
▁Ind	-1077
▁door	-1078
▁luck	-1079
ner	-1080
ason	-1081
▁bra	-1082
▁both	-1083
▁fire	-1084
az	-1085
asy	-1086
▁De	-1087
AY	-1088
ole	-1089
ying	-1090
▁taking	-1091
▁Alexander	-1092
▁build	-1093
▁clear	-1094
▁anyone	-1095
ness	-1096
▁Our	-1097
▁Sorry	-1098
rol	-1099
▁cut	-1100
▁also	-1101
ations	-1102
▁close	-1103
▁worry	-1104
▁young	-1105
hind	-1106
▁spe	-1107
▁tea	-1108
▁side	-1109
ai	-1110
ces	-1111
ize	-1112
ows	-1113
uff	-1114
ump	-1115
▁An	-1116
▁free	-1117
morrow	-1118
▁diffe	-1119
▁until	-1120
▁tomorrow	-1121
use	-1122
ates	-1123
cial	-1124
ract	-1125
▁cap	-1126
▁tou	-1127
▁Stop	-1128
▁dest	-1129
zy	-1130
men	-1131
▁Dr	-1132
osed	-1133
▁Car	-1134
▁inc	-1135
ating	-1136
▁mine	-1137
▁wind	-1138
▁trust	-1139
▁while	-1140
OM	-1141
ged	-1142
▁Bl	-1143
▁See	-1144
▁hope	-1145
EN	-1146
ys	-1147
UCK	-1148
▁IN	-1149
▁sk	-1150
ered	-1151
▁Hell	-1152
▁fore	-1153
▁gave	-1154
▁dream	-1155
▁moment	-1156
▁sister	-1157
OW	-1158
arth	-1159
▁walk	-1160
▁haven	-1161
▁hours	-1162
▁behind	-1163
ets	-1164
▁jo	-1165
rent	-1166
▁break	-1167
ts	-1168
ins	-1169
▁Of	-1170
outh	-1171
▁ear	-1172
▁ton	-1173
▁forg	-1174
▁send	-1175
▁Sw	-1176
ised	-1177
▁dro	-1178
▁mag	-1179
▁rel	-1180
▁happy	-1181
US	-1182
hn	-1183
led	-1184
iles	-1185
▁Keep	-1186
▁pretty	-1187
AS	-1188
bs	-1189
sw	-1190
app	-1191
aul	-1192
ject	-1193
▁bro	-1194
▁hot	-1195
▁its	-1196
▁couldn	-1197
eg	-1198
ale	-1199
▁Af	-1200
ctor	-1201
▁cop	-1202
anger	-1203
ither	-1204
▁sent	-1205
▁chance	-1206
▁police	-1207
▁thinking	-1208
ced	-1209
▁TO	-1210
ener	-1211
form	-1212
▁sign	-1213
▁later	-1214
▁water	-1215
▁forget	-1216
▁president	-1217
uss	-1218
ired	-1219
▁imp	-1220
▁Wait	-1221
▁save	-1222
▁wonder	-1223
▁protect	-1224
amp	-1225
ned	-1226
rer	-1227
aken	-1228
ital	-1229
▁kids	-1230
▁mill	-1231
▁poss	-1232
▁knows	-1233
▁maybe	-1234
ely	-1235
ran	-1236
rew	-1237
vent	-1238
▁Lord	-1239
▁point	-1240
▁sy	-1241
head	-1242
▁Vin	-1243
▁Whi	-1244
▁conf	-1245
arent	-1246
ative	-1247
▁John	-1248
▁died	-1249
▁mark	-1250
▁read	-1251
▁shot	-1252
▁trou	-1253
▁Vincent	-1254
ib	-1255
ial	-1256
its	-1257
eric	-1258
▁true	-1259
▁yeah	-1260
▁shoot	-1261
▁sound	-1262
▁actually	-1263
IT	-1264
ph	-1265
aid	-1266
▁boys	-1267
▁news	-1268
▁safe	-1269
▁follow	-1270
▁waiting	-1271
ED	-1272
ama	-1273
▁each	-1274
▁pull	-1275
▁complet	-1276
▁everyone	-1277
OT	-1278
▁CH	-1279
▁human	-1280
▁thank	-1281
▁touch	-1282
▁fo	-1283
ably	-1284
ison	-1285
▁law	-1286
▁crazy	-1287
▁reason	-1288
kes	-1289
sel	-1290
unk	-1291
ited	-1292
▁bed	-1293
▁pain	-1294
▁asked	-1295
▁least	-1296
▁means	-1297
▁tonight	-1298
▁children	-1299
▁DO	-1300
▁Ph	-1301
▁aw	-1302
▁uh	-1303
▁gra	-1304
▁lead	-1305
▁line	-1306
rought	-1307
▁since	-1308
▁question	-1309
ja	-1310
ied	-1311
▁ru	-1312
▁Her	-1313
▁dou	-1314
▁god	-1315
▁huh	-1316
right	-1317
urity	-1318
▁coll	-1319
▁high	-1320
▁sell	-1321
▁yours	-1322
▁Listen	-1323
ET	-1324
chool	-1325
▁check	-1326
▁comes	-1327
▁quick	-1328
▁working	-1329
pl	-1330
roy	-1331
ual	-1332
ween	-1333
▁tow	-1334
▁Fuck	-1335
▁enem	-1336
▁week	-1337
▁Americ	-1338
▁secret	-1339
000	-1340
ock	-1341
▁Su	-1342
hrer	-1343
▁New	-1344
▁inv	-1345
▁Andy	-1346
▁Even	-1347
▁land	-1348
▁lear	-1349
▁wall	-1350
▁light	-1351
▁making	-1352
▁brought	-1353
▁married	-1354
ief	-1355
ames	-1356
band	-1357
gest	-1358
attle	-1359
ction	-1360
▁Hold	-1361
▁five	-1362
▁inst	-1363
▁having	-1364
▁minute	-1365
▁control	-1366
CH	-1367
vel	-1368
▁ap	-1369
ding	-1370
ines	-1371
▁ins	-1372
▁num	-1373
▁answ	-1374
▁pick	-1375
▁team	-1376
▁Hello	-1377
▁different	-1378
osp	-1379
ront	-1380
▁His	-1381
▁Phil	-1382
▁damn	-1383
by	-1384
ats	-1385
eal	-1386
▁Sc	-1387
▁Dou	-1388
▁Pres	-1389
▁stre	-1390
usband	-1391
▁Fhrer	-1392
▁train	-1393
▁supposed	-1394
li	-1395
▁..	-1396
▁Pr	-1397
lock	-1398
more	-1399
raid	-1400
▁Got	-1401
▁char	-1402
▁easy	-1403
▁gets	-1404
▁makes	-1405
▁sweet	-1406
▁trouble	-1407
not	-1408
ult	-1409
▁Man	-1410
▁exc	-1411
▁drag	-1412
▁looks	-1413
ents	-1414
▁army	-1415
▁wish	-1416
▁afraid	-1417
▁return	-1418
UN	-1419
du	-1420
irth	-1421
▁Sar	-1422
▁pie	-1423
▁Stay	-1424
▁lose	-1425
▁Would	-1426
▁anymore	-1427
io	-1428
▁By	-1429
ging	-1430
bably	-1431
▁White	-1432
▁needs	-1433
▁times	-1434
▁between	-1435
▁husband	-1436
ELL	-1437
idd	-1438
ina	-1439
▁AN	-1440
▁IT	-1441
▁Tr	-1442
airs	-1443
itch	-1444
▁Chr	-1445
▁hon	-1446
ately	-1447
▁dear	-1448
▁sing	-1449
▁stuff	-1450
▁taken	-1451
▁import	-1452
▁President	-1453
mer	-1454
▁20	-1455
▁Cl	-1456
▁Pl	-1457
▁Shaw	-1458
▁boss	-1459
▁fact	-1460
▁birth	-1461
▁exact	-1462
▁danger	-1463
▁months	-1464
▁though	-1465
▁destroy	-1466
LE	-1467
ians	-1468
pped	-1469
ures	-1470
vice	-1471
▁loc	-1472
▁King	-1473
▁House	-1474
▁These	-1475
ey	-1476
gs	-1477
eed	-1478
ony	-1479
vers	-1480
▁yes	-1481
arget	-1482
▁city	-1483
▁four	-1484
itting	-1485
▁along	-1486
▁against	-1487
▁company	-1488
▁started	-1489
sh	-1490
ode	-1491
▁Ab	-1492
▁Gr	-1493
▁Me	-1494
▁ev	-1495
orth	-1496
▁Mom	-1497
▁reg	-1498
entle	-1499
▁Does	-1500
▁weap	-1501
▁After	-1502
▁grand	-1503
▁known	-1504
▁parent	-1505
▁es	-1506
lain	-1507
most	-1508
vest	-1509
▁cur	-1510
▁mus	-1511
lcome	-1512
ought	-1513
▁Miss	-1514
▁body	-1515
▁full	-1516
▁hate	-1517
▁party	-1518
▁become	-1519
▁running	-1520
oss	-1521
▁19	-1522
leas	-1523
olog	-1524
▁Doug	-1525
▁clos	-1526
▁cons	-1527
▁stra	-1528
ention	-1529
ler	-1530
lic	-1531
oof	-1532
▁ob	-1533
▁Two	-1534
▁gre	-1535
▁mem	-1536
▁bull	-1537
▁case	-1538
▁inter	-1539
▁Thanks	-1540
▁school	-1541
▁million	-1542
▁important	-1543
land	-1544
▁Cap	-1545
▁fav	-1546
▁pap	-1547
▁vis	-1548
▁able	-1549
▁Somet	-1550
▁Which	-1551
ountain	-1552
▁outside	-1553
AM	-1554
ju	-1555
pr	-1556
ther	-1557
▁med	-1558
▁Hank	-1559
▁half	-1560
▁town	-1561
▁expect	-1562
▁Nothing	-1563
▁respect	-1564
alm	-1565
ane	-1566
unt	-1567
ush	-1568
▁sn	-1569
▁add	-1570
ility	-1571
▁FUCK	-1572
▁fear	-1573
▁fell	-1574
▁game	-1575
▁goes	-1576
▁less	-1577
▁breat	-1578
▁truth	-1579
▁ground	-1580
▁serious	-1581
bt	-1582
iet	-1583
▁Ok	-1584
,000	-1585
elle	-1586
▁Jes	-1587
▁Rem	-1588
▁bar	-1589
▁burn	-1590
▁mist	-1591
▁story	-1592
▁office	-1593
▁parents	-1594
▁building	-1595
ork	-1596
ages	-1597
ined	-1598
stem	-1599
ster	-1600
▁Kai	-1601
▁ext	-1602
▁fly	-1603
▁fast	-1604
▁super	-1605
IM	-1606
ift	-1607
▁Ar	-1608
▁Hi	-1609
ault	-1610
▁Put	-1611
▁fig	-1612
▁shut	-1613
selves	-1614
▁clean	-1615
▁answer	-1616
▁choice	-1617
▁system	-1618
▁exactly	-1619
▁leaving	-1620
▁promise	-1621
▁probably	-1622
joy	-1623
▁Mar	-1624
▁dep	-1625
▁flo	-1626
▁beat	-1627
▁disc	-1628
▁grow	-1629
▁mate	-1630
▁near	-1631
▁Jesus	-1632
▁magic	-1633
▁Christ	-1634
▁number	-1635
▁strong	-1636
▁telling	-1637
▁possible	-1638
▁security	-1639
ays	-1640
ude	-1641
umb	-1642
▁Em	-1643
▁Fl	-1644
angu	-1645
▁Lea	-1646
▁hor	-1647
▁Very	-1648
▁dire	-1649
▁surv	-1650
▁front	-1651
▁tried	-1652
de	-1653
va	-1654
ilt	-1655
ues	-1656
ters	-1657
▁Har	-1658
▁cry	-1659
▁det	-1660
ished	-1661
▁lady	-1662
▁gener	-1663
▁langu	-1664
▁shall	-1665
▁battle	-1666
▁target	-1667
▁language	-1668
oc	-1669
▁Lu	-1670
ched	-1671
ient	-1672
ilit	-1673
ones	-1674
upid	-1675
ured	-1676
▁Dan	-1677
▁Mad	-1678
▁Mur	-1679
▁Pro	-1680
▁enemy	-1681
▁scared	-1682
VE	-1683
upp	-1684
▁ME	-1685
eace	-1686
ield	-1687
ries	-1688
▁Ant	-1689
▁Coo	-1690
▁pos	-1691
erest	-1692
▁stri	-1693
▁Pelle	-1694
▁ahead	-1695
▁trans	-1696
▁mission	-1697
▁9	-1698
IGH	-1699
▁ST	-1700
▁Jim	-1701
▁def	-1702
▁pig	-1703
▁Char	-1704
▁Love	-1705
▁Only	-1706
▁dist	-1707
▁fool	-1708
▁offic	-1709
ospital	-1710
▁SC	-1711
▁eng	-1712
ience	-1713
▁Baby	-1714
▁given	-1715
▁small	-1716
▁treat	-1717
entlemen	-1718
▁himself	-1719
▁speaking	-1720
AL	-1721
LY	-1722
no	-1723
cer	-1724
illy	-1725
▁Sec	-1726
▁ref	-1727
▁sim	-1728
uring	-1729
▁food	-1730
▁past	-1731
▁order	-1732
▁Everything	-1733
br	-1734
ONE	-1735
oul	-1736
▁SH	-1737
▁tw	-1738
▁wh	-1739
KING	-1740
▁Ber	-1741
▁Exc	-1742
▁buy	-1743
▁top	-1744
▁Comm	-1745
▁Make	-1746
▁Russ	-1747
▁bank	-1748
▁book	-1749
▁quite	-1750
▁moving	-1751
▁somewhere	-1752
gr	-1753
▁Gu	-1754
▁SP	-1755
▁Rah	-1756
▁esc	-1757
▁mad	-1758
▁sun	-1759
▁sold	-1760
▁peace	-1761
▁press	-1762
▁seems	-1763
▁cannot	-1764
▁report	-1765
▁shouldn	-1766
ya	-1767
▁!	-1768
gen	-1769
ped	-1770
aced	-1771
▁Bri	-1772
▁Con	-1773
▁Per	-1774
▁Sit	-1775
▁rid	-1776
▁pack	-1777
▁bitch	-1778
▁record	-1779
▁whatever	-1780
ken	-1781
omb	-1782
▁BE	-1783
▁nu	-1784
▁Ell	-1785
▁Sam	-1786
▁emp	-1787
▁lau	-1788
aring	-1789
▁fail	-1790
▁paid	-1791
▁ride	-1792
▁sick	-1793
▁Bring	-1794
▁Daddy	-1795
▁lives	-1796
▁Excuse	-1797
▁asking	-1798
▁entire	-1799
▁longer	-1800
▁calling	-1801
▁country	-1802
▁perfect	-1803
▁hospital	-1804
▁straight	-1805
TIN	-1806
medi	-1807
sing	-1808
▁Ser	-1809
▁bas	-1810
▁fut	-1811
▁squ	-1812
imate	-1813
iving	-1814
riage	-1815
▁hang	-1816
▁lock	-1817
▁vill	-1818
▁Leave	-1819
▁black	-1820
▁learn	-1821
▁lucky	-1822
▁almost	-1823
▁disapp	-1824
▁feeling	-1825
ann	-1826
elt	-1827
ots	-1828
▁GR	-1829
haps	-1830
▁adv	-1831
▁tre	-1832
▁feet	-1833
▁Earth	-1834
▁enjoy	-1835
▁funny	-1836
▁arrest	-1837
▁doctor	-1838
▁meeting	-1839
▁special	-1840
▁mountain	-1841
lie	-1842
lin	-1843
▁12	-1844
▁PL	-1845
▁Po	-1846
▁SO	-1847
hole	-1848
roud	-1849
▁tot	-1850
▁Mart	-1851
▁aren	-1852
▁hair	-1853
▁First	-1854
▁drive	-1855
ational	-1856
▁couple	-1857
▁either	-1858
▁invest	-1859
▁changed	-1860
▁happens	-1861
▁message	-1862
▁Remember	-1863
▁interest	-1864
cc	-1865
to	-1866
ERE	-1867
els	-1868
urd	-1869
▁15	-1870
olut	-1871
vern	-1872
▁Ram	-1873
▁lad	-1874
▁lie	-1875
▁cent	-1876
▁sort	-1877
▁Rahul	-1878
▁cross	-1879
▁Master	-1880
▁immedi	-1881
bar	-1882
ton	-1883
▁Te	-1884
arch	-1885
cher	-1886
room	-1887
▁Pri	-1888
▁dem	-1889
▁eye	-1890
▁mer	-1891
▁sea	-1892
▁Drag	-1893
▁budd	-1894
▁drop	-1895
▁gold	-1896
▁Never	-1897
▁accept	-1898
▁inform	-1899
▁planet	-1900
▁seeing	-1901
▁turned	-1902
▁FUCKING	-1903
ata	-1904
eth	-1905
hal	-1906
▁Le	-1907
▁Ro	-1908
▁Uh	-1909
▁ma	-1910
▁ow	-1911
ards	-1912
cket	-1913
▁Fran	-1914
▁From	-1915
▁Saru	-1916
▁bott	-1917
▁cold	-1918
▁foot	-1919
▁step	-1920
▁suit	-1921
▁piece	-1922
▁uncle	-1923
▁women	-1924
▁belong	-1925
▁native	-1926
AD	-1927
AU	-1928
EP	-1929
bb	-1930
ik	-1931
ric	-1932
ury	-1933
▁la	-1934
ants	-1935
pect	-1936
▁Che	-1937
▁rep	-1938
ision	-1939
▁born	-1940
uation	-1941
▁deser	-1942
▁girls	-1943
▁marry	-1944
▁reach	-1945
▁takes	-1946
▁weeks	-1947
▁others	-1948
▁birthday	-1949
▁marriage	-1950
co	-1951
▁z	-1952
ety	-1953
irt	-1954
ley	-1955
▁leg	-1956
ering	-1957
▁Lady	-1958
▁Okja	-1959
▁form	-1960
▁road	-1961
▁test	-1962
▁Could	-1963
▁Murph	-1964
▁spend	-1965
▁teach	-1966
▁contin	-1967
loy	-1968
rem	-1969
▁CL	-1970
▁NO	-1971
▁ve	-1972
▁Jud	-1973
▁MAN	-1974
▁Was	-1975
▁six	-1976
ature	-1977
azing	-1978
clear	-1979
iddle	-1980
ndred	-1981
rible	-1982
▁PLAY	-1983
▁cell	-1984
▁oper	-1985
▁till	-1986
ically	-1987
▁brain	-1988
▁steal	-1989
▁Should	-1990
▁future	-1991
▁handle	-1992
▁master	-1993
▁stupid	-1994
▁Captain	-1995
▁support	-1996
ene	-1997
▁30	-1998
amer	-1999
ator	-2000
ized	-2001
line	-2002
▁100	-2003
▁Par	-2004
▁rad	-2005
inner	-2006
▁blow	-2007
▁wast	-2008
▁floor	-2009
▁meant	-2010
▁music	-2011
NA	-2012
fic	-2013
▁HE	-2014
ided	-2015
urry	-2016
▁ALL	-2017
▁Shi	-2018
▁bag	-2019
▁del	-2020
▁dev	-2021
▁dog	-2022
▁fre	-2023
▁tax	-2024
ortun	-2025
▁Gree	-2026
▁More	-2027
▁arri	-2028
▁bast	-2029
▁felt	-2030
▁imag	-2031
▁Kaiju	-2032
▁Watch	-2033
▁buddy	-2034
▁pleas	-2035
▁proud	-2036
▁works	-2037
▁Cooper	-2038
▁prison	-2039
▁threat	-2040
▁Someone	-2041
▁windows	-2042
▁worried	-2043
▁gentlemen	-2044
pha	-2045
rik	-2046
▁Ne	-2047
▁fu	-2048
ists	-2049
ular	-2050
▁Bob	-2051
▁Max	-2052
▁Say	-2053
▁Tom	-2054
▁fix	-2055
▁idi	-2056
▁mut	-2057
▁pat	-2058
ities	-2059
ounds	-2060
uthor	-2061
▁Call	-2062
▁Open	-2063
▁cool	-2064
▁fing	-2065
ertain	-2066
ousand	-2067
▁anyway	-2068
▁govern	-2069
▁looked	-2070
▁orders	-2071
▁PLAYING	-2072
▁command	-2073
▁hundred	-2074
▁seconds	-2075
▁completely	-2076
LD	-2077
ARS	-2078
cut	-2079
ten	-2080
vor	-2081
AUGH	-2082
eter	-2083
fess	-2084
iger	-2085
oose	-2086
▁arm	-2087
▁bec	-2088
▁ind	-2089
▁ris	-2090
▁sol	-2091
ments	-2092
onest	-2093
▁Move	-2094
▁code	-2095
▁kick	-2096
▁pict	-2097
▁rece	-2098
▁Three	-2099
▁quiet	-2100
▁saved	-2101
▁worse	-2102
▁direct	-2103
▁finally	-2104
▁position	-2105
hen	-2106
ics	-2107
▁OK	-2108
atur	-2109
ches	-2110
ills	-2111
king	-2112
▁AND	-2113
▁Dar	-2114
▁Mal	-2115
▁aff	-2116
▁art	-2117
rance	-2118
▁Alan	-2119
▁Burt	-2120
▁Find	-2121
▁Indu	-2122
▁cost	-2123
▁godd	-2124
▁hist	-2125
▁prep	-2126
▁soul	-2127
▁stud	-2128
▁carry	-2129
▁worth	-2130
▁needed	-2131
▁Everyone	-2132
▁immediately	-2133
IR	-2134
sy	-2135
vo	-2136
ze	-2137
gan	-2138
irm	-2139
law	-2140
▁GO	-2141
▁ir	-2142
hose	-2143
ific	-2144
▁ele	-2145
▁sus	-2146
iding	-2147
pping	-2148
rence	-2149
▁SPEA	-2150
▁Swan	-2151
▁calm	-2152
▁cook	-2153
▁Those	-2154
▁Uncle	-2155
▁class	-2156
▁escap	-2157
▁loved	-2158
▁America	-2159
▁forgive	-2160
▁nuclear	-2161
UT	-2162
icy	-2163
key	-2164
onn	-2165
ote	-2166
rap	-2167
ror	-2168
▁50	-2169
▁Mo	-2170
chan	-2171
rick	-2172
▁Cle	-2173
▁fac	-2174
▁sug	-2175
▁Nice	-2176
▁Over	-2177
▁Turn	-2178
▁ball	-2179
▁hole	-2180
▁star	-2181
▁favor	-2182
▁throw	-2183
▁track	-2184
▁anybody	-2185
▁goddamn	-2186
▁playing	-2187
▁everybody	-2188
dom	-2189
rop	-2190
urg	-2191
▁ed	-2192
LING	-2193
aged	-2194
used	-2195
wise	-2196
▁inf	-2197
▁SCRE	-2198
▁requ	-2199
▁tick	-2200
stairs	-2201
▁lived	-2202
▁mouth	-2203
▁weren	-2204
▁finish	-2205
▁explain	-2206
▁forever	-2207
▁respons	-2208
▁somebody	-2209
▁watching	-2210
mm	-2211
emp	-2212
▁Du	-2213
▁En	-2214
▁ty	-2215
ears	-2216
inal	-2217
ored	-2218
ully	-2219
uppy	-2220
▁Isn	-2221
▁MUS	-2222
▁Red	-2223
▁San	-2224
▁Try	-2225
▁cor	-2226
▁sat	-2227
▁suc	-2228
iting	-2229
▁Shut	-2230
▁data	-2231
▁ones	-2232
▁pray	-2233
▁ring	-2234
▁weak	-2235
incess	-2236
ressed	-2237
▁LAUGH	-2238
▁fault	-2239
▁paper	-2240
▁living	-2241
▁Welcome	-2242
▁survive	-2243
▁thousand	-2244
▁dangerous	-2245
▁happening	-2246
FF	-2247
itz	-2248
▁BA	-2249
▁Ma	-2250
ager	-2251
anda	-2252
ffee	-2253
rior	-2254
▁Eli	-2255
▁Sim	-2256
▁bab	-2257
inite	-2258
vious	-2259
▁Damn	-2260
▁Kill	-2261
▁defe	-2262
▁drug	-2263
▁roof	-2264
▁slow	-2265
ission	-2266
▁catch	-2267
▁creat	-2268
▁exper	-2269
▁idiot	-2270
▁space	-2271
▁surpr	-2272
▁Father	-2273
▁figure	-2274
▁remain	-2275
▁weapon	-2276
▁quickly	-2277
▁station	-2278
CT	-2279
het	-2280
ism	-2281
rie	-2282
▁AL	-2283
▁PH	-2284
▁ce	-2285
IGHT	-2286
ider	-2287
ides	-2288
nect	-2289
over	-2290
ring	-2291
▁Col	-2292
▁Ste	-2293
▁Tre	-2294
▁ble	-2295
▁ill	-2296
▁owe	-2297
▁red	-2298
ining	-2299
▁Bell	-2300
▁Walk	-2301
▁bomb	-2302
▁camp	-2303
▁dark	-2304
▁grou	-2305
▁load	-2306
▁seat	-2307
idence	-2308
▁Priya	-2309
▁Shiva	-2310
▁begin	-2311
▁doubt	-2312
▁earth	-2313
▁honor	-2314
▁sense	-2315
▁smart	-2316
▁within	-2317
ILL	-2318
TER	-2319
anc	-2320
ges	-2321
hip	-2322
olf	-2323
pat	-2324
yer	-2325
▁Ah	-2326
▁Ap	-2327
enty	-2328
host	-2329
rypt	-2330
▁sub	-2331
ciate	-2332
▁Sean	-2333
▁THAT	-2334
▁Wals	-2335
▁blue	-2336
▁busy	-2337
▁card	-2338
▁deep	-2339
▁main	-2340
▁norm	-2341
▁poor	-2342
▁Carol	-2343
▁MUSIC	-2344
▁invol	-2345
▁laugh	-2346
▁table	-2347
ilitary	-2348
▁Martin	-2349
▁action	-2350
▁diffic	-2351
▁flight	-2352
▁launch	-2353
▁rather	-2354
▁connect	-2355
▁kidding	-2356
▁stopped	-2357
▁fighting	-2358
▁information	-2359
UES	-2360
chn	-2361
erv	-2362
ich	-2363
ino	-2364
ney	-2365
obb	-2366
vin	-2367
▁CON	-2368
▁Mir	-2369
▁Mor	-2370
▁Tim	-2371
▁War	-2372
▁sex	-2373
fully	-2374
ional	-2375
▁DOOR	-2376
▁Hang	-2377
▁bird	-2378
▁kiss	-2379
INGING	-2380
▁hotel	-2381
▁smell	-2382
▁white	-2383
▁People	-2384
▁coffee	-2385
▁double	-2386
▁honest	-2387
▁proper	-2388
▁thanks	-2389
▁worked	-2390
▁Something	-2391
▁questions	-2392
OP	-2393
gy	-2394
me	-2395
bon	-2396
bye	-2397
oto	-2398
urb	-2399
you	-2400
▁WE	-2401
ange	-2402
aven	-2403
oint	-2404
tact	-2405
▁age	-2406
▁ang	-2407
▁mis	-2408
▁Erik	-2409
▁YOUR	-2410
▁corn	-2411
▁glad	-2412
▁heav	-2413
▁join	-2414
▁Other	-2415
▁Stand	-2416
▁agree	-2417
▁miles	-2418
▁plane	-2419
▁witch	-2420
▁Berlin	-2421
▁dragon	-2422
▁village	-2423
▁passport	-2424
ID	-2425
KE	-2426
iew	-2427
ked	-2428
oud	-2429
▁fr	-2430
gram	-2431
▁Ger	-2432
▁Ten	-2433
▁est	-2434
▁hey	-2435
▁pir	-2436
▁sil	-2437
▁spo	-2438
▁wed	-2439
arden	-2440
▁Deer	-2441
▁Shar	-2442
▁WHAT	-2443
▁hero	-2444
▁hung	-2445
▁murd	-2446
▁Danny	-2447
▁Super	-2448
▁block	-2449
▁event	-2450
▁force	-2451
▁short	-2452
▁using	-2453
▁write	-2454
initely	-2455
▁Judith	-2456
▁charge	-2457
▁nobody	-2458
▁amazing	-2459
▁suggest	-2460
▁personal	-2461
▁promised	-2462
▁difficult	-2463
▁government	-2464
RA	-2465
bit	-2466
ege	-2467
ept	-2468
fer	-2469
ker	-2470
▁.?	-2471
▁24	-2472
ando	-2473
ping	-2474
▁Act	-2475
▁Gra	-2476
▁Out	-2477
▁col	-2478
▁hop	-2479
▁lar	-2480
▁pop	-2481
▁sad	-2482
arrow	-2483
ified	-2484
itted	-2485
▁Back	-2486
▁doll	-2487
▁feed	-2488
▁host	-2489
▁rock	-2490
ishing	-2491
rypton	-2492
▁About	-2493
▁Looks	-2494
▁PHONE	-2495
▁Scott	-2496
▁allow	-2497
▁apart	-2498
▁camer	-2499
▁ghost	-2500
▁north	-2501
▁price	-2502
▁stole	-2503
▁Nobody	-2504
▁Philip	-2505
▁across	-2506
▁Mirando	-2507
▁bastard	-2508
▁certain	-2509
ma	-2510
ICK	-2511
LES	-2512
cus	-2513
ium	-2514
oun	-2515
que	-2516
bers	-2517
unty	-2518
▁200	-2519
▁Bre	-2520
▁ice	-2521
▁pot	-2522
onnie	-2523
oring	-2524
▁heal	-2525
▁hide	-2526
▁jump	-2527
▁Think	-2528
▁appro	-2529
▁cover	-2530
▁final	-2531
▁knife	-2532
▁likes	-2533
▁sales	-2534
▁state	-2535
mission	-2536
▁Ronnie	-2537
▁broken	-2538
▁caught	-2539
▁forest	-2540
▁memory	-2541
▁missed	-2542
▁single	-2543
▁careful	-2544
▁evening	-2545
▁forward	-2546
▁mistake	-2547
▁program	-2548
▁complete	-2549
▁terrible	-2550
.?	-2551
cri	-2552
der	-2553
ead	-2554
gin	-2555
▁hi	-2556
▁vo	-2557
TING	-2558
hair	-2559
lier	-2560
ming	-2561
▁Tor	-2562
▁abs	-2563
▁opp	-2564
▁par	-2565
heart	-2566
otten	-2567
wards	-2568
▁Five	-2569
▁Help	-2570
▁Once	-2571
▁anim	-2572
▁cond	-2573
▁fair	-2574
▁priv	-2575
▁wear	-2576
▁James	-2577
▁exist	-2578
▁lying	-2579
▁swear	-2580
▁words	-2581
ibility	-2582
▁Walshy	-2583
▁commun	-2584
▁market	-2585
▁search	-2586
▁Brother	-2587
▁contact	-2588
▁dragons	-2589
▁history	-2590
▁missing	-2591
▁success	-2592
▁Whatever	-2593
▁anywhere	-2594
▁situation	-2595
VER	-2596
ava	-2597
ert	-2598
eus	-2599
ham	-2600
iol	-2601
sen	-2602
▁Sm	-2603
▁TV	-2604
egas	-2605
ilot	-2606
irty	-2607
▁Cop	-2608
▁Dav	-2609
▁box	-2610
▁map	-2611
ester	-2612
ffect	-2613
▁Show	-2614
▁gods	-2615
▁appre	-2616
▁chief	-2617
▁queen	-2618
▁round	-2619
▁spent	-2620
▁visit	-2621
▁Before	-2622
▁Little	-2623
▁during	-2624
▁secure	-2625
▁street	-2626
▁military	-2627
▁standing	-2628
▁Everybody	-2629
bo	-2630
OME	-2631
deR	-2632
val	-2633
▁BL	-2634
▁Mn	-2635
▁Sn	-2636
ball	-2637
ives	-2638
▁GET	-2639
▁Son	-2640
▁Tod	-2641
▁key	-2642
▁mod	-2643
▁occ	-2644
▁pub	-2645
▁ten	-2646
▁tor	-2647
▁Hope	-2648
▁NdeR	-2649
▁coun	-2650
▁mach	-2651
fessor	-2652
▁Ender	-2653
▁Niles	-2654
▁Vegas	-2655
▁drunk	-2656
▁knock	-2657
▁produ	-2658
▁stick	-2659
▁CONTIN	-2660
▁German	-2661
▁author	-2662
▁concer	-2663
▁asshole	-2664
▁weapons	-2665
▁wedding	-2666
▁American	-2667
▁pleasure	-2668
'.	-2669
UR	-2670
cl	-2671
go	-2672
ky	-2673
INE	-2674
ila	-2675
ius	-2676
sed	-2677
yal	-2678
▁El	-2679
dden	-2680
▁CAR	-2681
▁GUN	-2682
▁Mnk	-2683
▁Run	-2684
▁dra	-2685
▁pur	-2686
▁Most	-2687
▁guns	-2688
▁kept	-2689
▁roll	-2690
▁ways	-2691
▁Amlie	-2692
▁Brand	-2693
▁CHUCK	-2694
▁North	-2695
▁South	-2696
▁Speak	-2697
▁group	-2698
▁offer	-2699
▁pract	-2700
▁seven	-2701
▁Trevor	-2702
▁decide	-2703
▁dreams	-2704
▁humans	-2705
▁sudden	-2706
▁collect	-2707
ICE	-2708
eng	-2709
ior	-2710
ray	-2711
ugg	-2712
▁KN	-2713
▁LI	-2714
▁Mu	-2715
▁OH	-2716
ites	-2717
olks	-2718
▁Duf	-2719
▁Hum	-2720
▁Jac	-2721
▁Las	-2722
▁low	-2723
ology	-2724
ories	-2725
venge	-2726
▁Robb	-2727
▁agre	-2728
▁bicy	-2729
▁bill	-2730
▁dare	-2731
▁date	-2732
▁hasn	-2733
▁prop	-2734
▁spec	-2735
▁Anton	-2736
▁Brian	-2737
▁Simon	-2738
▁broke	-2739
▁curse	-2740
▁polit	-2741
▁sword	-2742
▁truck	-2743
ossible	-2744
redible	-2745
▁corner	-2746
▁sounds	-2747
▁address	-2748
▁decided	-2749
▁welcome	-2750
▁arrested	-2751
▁decision	-2752
▁involved	-2753
▁problems	-2754
▁definitely	-2755
UST	-2756
imb	-2757
nds	-2758
ogn	-2759
ute	-2760
▁Ja	-2761
▁TM	-2762
▁eh	-2763
anks	-2764
iant	-2765
leet	-2766
rupt	-2767
yond	-2768
▁Bar	-2769
▁Del	-2770
▁Mrs	-2771
▁Pol	-2772
▁PrM	-2773
▁Wor	-2774
▁equ	-2775
▁fil	-2776
▁lab	-2777
▁pun	-2778
▁sky	-2779
ading	-2780
atest	-2781
▁Last	-2782
▁Paul	-2783
▁Pull	-2784
▁Tony	-2785
▁bath	-2786
▁bell	-2787
▁cars	-2788
▁evil	-2789
▁fish	-2790
▁rule	-2791
▁viol	-2792
▁wake	-2793
▁India	-2794
▁brave	-2795
▁crime	-2796
▁early	-2797
▁glass	-2798
▁honey	-2799
▁level	-2800
▁store	-2801
▁weird	-2802
▁Malays	-2803
▁SCREAM	-2804
▁effect	-2805
▁giving	-2806
▁normal	-2807
▁simple	-2808
▁thinks	-2809
▁Perhaps	-2810
▁suppose	-2811
▁Russians	-2812
▁greatest	-2813
▁location	-2814
▁powerful	-2815
▁training	-2816
▁CONTINUES	-2817
▁Sometimes	-2818
PP	-2819
OUN	-2820
ify	-2821
une	-2822
▁Es	-2823
▁MY	-2824
▁er	-2825
ecut	-2826
ires	-2827
ises	-2828
▁App	-2829
▁HAN	-2830
▁Way	-2831
▁fit	-2832
▁pen	-2833
▁sal	-2834
▁thr	-2835
▁uni	-2836
ached	-2837
under	-2838
▁Fitz	-2839
▁Kore	-2840
▁Mike	-2841
▁Time	-2842
▁gift	-2843
▁grav	-2844
▁harm	-2845
▁piss	-2846
▁rich	-2847
▁seem	-2848
anding	-2849
▁Check	-2850
▁Since	-2851
▁Today	-2852
▁loves	-2853
▁share	-2854
▁surre	-2855
▁techn	-2856
▁trick	-2857
patrick	-2858
▁Hollow	-2859
▁beyond	-2860
▁dinner	-2861
▁escape	-2862
▁forgot	-2863
▁fucked	-2864
▁hungry	-2865
▁recogn	-2866
▁streng	-2867
▁strike	-2868
▁Charles	-2869
▁account	-2870
▁college	-2871
▁service	-2872
▁appreciate	-2873
▁everywhere	-2874
▁Fitzpatrick	-2875
0.	-2876
CE	-2877
UM	-2878
▁?	-2879
IRE	-2880
OAN	-2881
ask	-2882
los	-2883
uly	-2884
▁Ag	-2885
...?	-2886
ades	-2887
onel	-2888
shit	-2889
▁Has	-2890
▁Jay	-2891
▁Kal	-2892
▁Spe	-2893
▁blo	-2894
▁dam	-2895
▁fan	-2896
▁gen	-2897
▁jud	-2898
gency	-2899
orrow	-2900
▁Sita	-2901
▁Sure	-2902
▁TARS	-2903
▁cops	-2904
▁crim	-2905
▁gate	-2906
▁snow	-2907
eneral	-2908
istion	-2909
▁Hepha	-2910
▁Jacob	-2911
▁RIGHT	-2912
▁Shall	-2913
▁board	-2914
▁dying	-2915
▁field	-2916
▁guard	-2917
▁horse	-2918
▁local	-2919
▁relax	-2920
▁sight	-2921
▁stuck	-2922
▁third	-2923
▁tight	-2924
olutely	-2925
viously	-2926
▁except	-2927
▁remind	-2928
▁terror	-2929
▁General	-2930
▁earlier	-2931
▁present	-2932
▁attention	-2933
▁destroyed	-2934
▁sometimes	-2935
▁impossible	-2936
▁themselves	-2937
▁Hephaistion	-2938
5.	-2939
con	-2940
mit	-2941
▁Ca	-2942
▁SE	-2943
▁ya	-2944
cted	-2945
irit	-2946
▁Big	-2947
▁DON	-2948
▁Stu	-2949
▁Too	-2950
▁Tra	-2951
▁bud	-2952
▁mot	-2953
▁ran	-2954
astic	-2955
▁JUST	-2956
▁York	-2957
▁area	-2958
▁base	-2959
▁clot	-2960
▁crew	-2961
▁iron	-2962
▁jail	-2963
▁none	-2964
▁soci	-2965
▁trip	-2966
▁Stark	-2967
▁keeps	-2968
▁rules	-2969
hairava	-2970
▁closed	-2971
▁lovely	-2972
▁middle	-2973
▁taught	-2974
▁Another	-2975
▁bicycle	-2976
▁imagine	-2977
▁mention	-2978
▁starting	-2979
▁strength	-2980
▁wonderful	-2981
RI	-2982
aim	-2983
ams	-2984
apt	-2985
gue	-2986
iny	-2987
nel	-2988
str	-2989
▁Ed	-2990
▁Fr	-2991
▁Lo	-2992
atic	-2993
ffic	-2994
iter	-2995
ivil	-2996
▁Ask	-2997
▁Bra	-2998
▁HIM	-2999
▁Lad	-3000
▁Mak	-3001
▁WAN	-3002
▁cir	-3003
▁hun	-3004
▁van	-3005
ement	-3006
ictor	-3007
▁Didn	-3008
▁Guys	-3009
▁Were	-3010
▁West	-3011
▁neck	-3012
▁post	-3013
▁sens	-3014
▁skin	-3015
▁tour	-3016
▁wood	-3017
acedon	-3018
▁Clark	-3019
▁Ellen	-3020
▁Great	-3021
▁Still	-3022
▁angry	-3023
▁dress	-3024
▁fired	-3025
▁folks	-3026
▁large	-3027
▁match	-3028
▁medic	-3029
▁puppy	-3030
▁tiger	-3031
▁Follow	-3032
▁Mother	-3033
▁United	-3034
▁assist	-3035
▁bottle	-3036
▁lawyer	-3037
▁Fucking	-3038
▁Macedon	-3039
▁Sparrow	-3040
▁biggest	-3041
▁heading	-3042
▁holding	-3043
▁receive	-3044
▁sitting	-3045
▁soldier	-3046
▁Anything	-3047
▁continue	-3048
▁princess	-3049
▁Commander	-3050
▁forgotten	-3051
▁listening	-3052
▁sweetheart	-3053
RO	-3054
ns	-3055
arm	-3056
ees	-3057
min	-3058
mon	-3059
set	-3060
▁40	-3061
▁IS	-3062
rief	-3063
time	-3064
▁CAS	-3065
▁Cor	-3066
▁Eng	-3067
▁Mag	-3068
▁amb	-3069
▁cas	-3070
▁dut	-3071
▁val	-3072
ising	-3073
ondon	-3074
ordin	-3075
ution	-3076
▁Cale	-3077
▁Ella	-3078
▁Life	-3079
▁Mama	-3080
▁Wall	-3081
▁comb	-3082
▁risk	-3083
▁sail	-3084
▁wine	-3085
▁Franc	-3086
▁above	-3087
▁among	-3088
▁bless	-3089
▁blind	-3090
▁built	-3091
▁drift	-3092
▁eight	-3093
▁ships	-3094
▁teeth	-3095
▁tired	-3096
▁twice	-3097
▁Police	-3098
▁bloody	-3099
▁bother	-3100
▁breach	-3101
▁detail	-3102
▁engine	-3103
▁ladies	-3104
▁passed	-3105
esterday	-3106
▁airport	-3107
▁killing	-3108
▁perform	-3109
▁realize	-3110
▁Torrance	-3111
▁painting	-3112
▁planning	-3113
OS	-3114
bor	-3115
eys	-3116
hae	-3117
tle	-3118
bert	-3119
empt	-3120
onse	-3121
resh	-3122
sych	-3123
▁Alp	-3124
▁Men	-3125
▁cat	-3126
▁cow	-3127
▁due	-3128
▁eas	-3129
▁lim	-3130
▁rev	-3131
chant	-3132
ellow	-3133
▁KNOW	-3134
▁Rama	-3135
▁Want	-3136
▁beha	-3137
▁cash	-3138
▁emer	-3139
▁farm	-3140
▁hook	-3141
▁list	-3142
▁lord	-3143
▁ours	-3144
▁repl	-3145
▁suff	-3146
▁tast	-3147
▁vict	-3148
▁vide	-3149
▁warm	-3150
fortun	-3151
▁Bella	-3152
▁Chung	-3153
▁Elias	-3154
▁Emily	-3155
▁accom	-3156
▁crack	-3157
▁hurry	-3158
▁organ	-3159
▁panda	-3160
▁stars	-3161
▁voice	-3162
▁Dragon	-3163
▁Harley	-3164
▁Johnny	-3165
▁London	-3166
▁Robbie	-3167
▁Secret	-3168
▁center	-3169
▁compet	-3170
▁losing	-3171
▁partic	-3172
▁plenty	-3173
▁unless	-3174
▁Without	-3175
▁monster	-3176
▁picture	-3177
▁putting	-3178
▁strange	-3179
▁SPEAKING	-3180
▁upstairs	-3181
RY	-3182
lt	-3183
mp	-3184
xy	-3185
aly	-3186
cil	-3187
ume	-3188
uts	-3189
▁Co	-3190
▁Ey	-3191
▁UP	-3192
▁US	-3193
▁oh	-3194
....	-3195
aces	-3196
ests	-3197
lebr	-3198
omes	-3199
read	-3200
▁Bet	-3201
▁Sho	-3202
▁Sil	-3203
▁kit	-3204
ERING	-3205
leton	-3206
owers	-3207
▁fill	-3208
▁jack	-3209
▁lots	-3210
▁mass	-3211
▁Grand	-3212
▁World	-3213
▁aunty	-3214
▁chick	-3215
▁devil	-3216
▁hello	-3217
▁radio	-3218
▁south	-3219
▁treas	-3220
▁worst	-3221
▁Ladies	-3222
▁States	-3223
▁Walker	-3224
▁betray	-3225
▁camera	-3226
▁paying	-3227
▁pocket	-3228
▁ticket	-3229
▁clothes	-3230
▁general	-3231
▁instead	-3232
▁totally	-3233
▁walking	-3234
▁CHUCKLES	-3235
▁Chunghae	-3236
▁Somebody	-3237
▁Superman	-3238
▁accident	-3239
▁bullshit	-3240
▁surrender	-3241
▁yesterday	-3242
▁incredible	-3243
IA	-3244
II	-3245
NG	-3246
gg	-3247
te	-3248
uc	-3249
OTH	-3250
arl	-3251
iti	-3252
nes	-3253
rat	-3254
son	-3255
ule	-3256
▁Cr	-3257
▁RO	-3258
▁Tw	-3259
▁ca	-3260
▁pe	-3261
cell	-3262
ival	-3263
lish	-3264
ouis	-3265
rage	-3266
reen	-3267
rodu	-3268
▁lay	-3269
▁oce	-3270
ental	-3271
idden	-3272
▁East	-3273
▁HERE	-3274
▁Hand	-3275
▁Must	-3276
▁Send	-3277
▁THIS	-3278
▁Temp	-3279
▁bear	-3280
▁expl	-3281
▁fort	-3282
▁park	-3283
▁prov	-3284
▁self	-3285
▁song	-3286
▁tele	-3287
ervous	-3288
urance	-3289
▁GROAN	-3290
▁Inder	-3291
▁Louis	-3292
▁While	-3293
▁cause	-3294
▁civil	-3295
▁daddy	-3296
▁doors	-3297
▁serve	-3298
▁tough	-3299
▁walls	-3300
▁waste	-3301
▁Victor	-3302
▁bigger	-3303
▁bought	-3304
▁buried	-3305
▁closer	-3306
▁crying	-3307
▁drones	-3308
▁object	-3309
▁public	-3310
▁recent	-3311
▁signal	-3312
▁belongs	-3313
▁climate	-3314
▁kingdom	-3315
▁learned	-3316
▁selling	-3317
▁Actually	-3318
▁Bhairava	-3319
▁contract	-3320
▁sleeping	-3321
TS	-3322
mb	-3323
ago	-3324
ero	-3325
got	-3326
ien	-3327
inc	-3328
oke	-3329
oly	-3330
rep	-3331
ted	-3332
▁11	-3333
▁Py	-3334
OULD	-3335
ales	-3336
aves	-3337
cing	-3338
eral	-3339
esar	-3340
fuck	-3341
mila	-3342
ners	-3343
rill	-3344
▁500	-3345
▁Maj	-3346
▁Met	-3347
▁TRE	-3348
▁WOM	-3349
▁ann	-3350
▁cal	-3351
▁dar	-3352
▁fat	-3353
▁iss	-3354
▁pet	-3355
▁scr	-3356
▁ste	-3357
Cause	-3358
ended	-3359
itten	-3360
light	-3361
▁BEEP	-3362
▁City	-3363
▁Head	-3364
▁Mill	-3365
▁Next	-3366
▁buck	-3367
▁capt	-3368
▁crap	-3369
▁file	-3370
▁legs	-3371
▁lift	-3372
▁repe	-3373
▁resc	-3374
▁sake	-3375
▁spot	-3376
▁upon	-3377
cially	-3378
▁Trust	-3379
▁Wells	-3380
▁activ	-3381
▁feels	-3382
▁heavy	-3383
▁liked	-3384
▁neigh	-3385
▁pants	-3386
▁prick	-3387
▁prove	-3388
▁video	-3389
▁wound	-3390
▁Anyway	-3391
▁Caesar	-3392
▁Really	-3393
▁apolog	-3394
▁celebr	-3395
▁execut	-3396
▁finger	-3397
▁pirate	-3398
▁starts	-3399
▁weight	-3400
ulations	-3401
▁Francis	-3402
▁discuss	-3403
▁enemies	-3404
▁falling	-3405
▁gravity	-3406
▁nervous	-3407
▁officer	-3408
▁perhaps	-3409
▁project	-3410
▁useless	-3411
▁warrior	-3412
▁Sharmila	-3413
▁attacked	-3414
▁surprise	-3415
▁threaten	-3416
▁Malaysian	-3417
ITH	-3418
ati	-3419
ern	-3420
ses	-3421
▁Ad	-3422
▁Ha	-3423
▁Hy	-3424
▁OF	-3425
▁lt	-3426
▁um	-3427
HING	-3428
born	-3429
eger	-3430
esty	-3431
ibly	-3432
ints	-3433
olen	-3434
ural	-3435
work	-3436
▁Air	-3437
▁Cac	-3438
▁Hit	-3439
▁NOT	-3440
▁Oog	-3441
▁ant	-3442
▁bow	-3443
▁gir	-3444
▁ide	-3445
▁opt	-3446
agger	-3447
astle	-3448
cious	-3449
eding	-3450
▁Dear	-3451
▁Happ	-3452
▁Jang	-3453
▁Mann	-3454
▁cred	-3455
▁deli	-3456
▁emot	-3457
▁ends	-3458
▁huge	-3459
▁moon	-3460
▁west	-3461
friend	-3462
nocent	-3463
urther	-3464
▁Bobby	-3465
▁China	-3466
▁Their	-3467
▁award	-3468
▁blame	-3469
▁court	-3470
▁empty	-3471
▁extra	-3472
▁finds	-3473
▁psych	-3474
▁shame	-3475
▁speed	-3476
▁storm	-3477
▁tells	-3478
aturday	-3479
▁Cachet	-3480
▁Indian	-3481
▁Jaeger	-3482
▁Oogway	-3483
▁became	-3484
▁bottom	-3485
▁breath	-3486
▁bullet	-3487
▁choose	-3488
▁defend	-3489
▁employ	-3490
▁excuse	-3491
▁nature	-3492
▁waited	-3493
▁window	-3494
▁alright	-3495
▁arrived	-3496
▁deserve	-3497
▁dollars	-3498
▁machine	-3499
▁manager	-3500
▁medical	-3501
▁partner	-3502
▁society	-3503
▁weather	-3504
▁finished	-3505
▁prepared	-3506
▁Otherwise	-3507
▁mountains	-3508
▁ourselves	-3509
▁permission	-3510
VOR	-3511
amb	-3512
che	-3513
rel	-3514
the	-3515
▁13	-3516
▁Ak	-3517
ends	-3518
iers	-3519
irac	-3520
rate	-3521
urga	-3522
▁Att	-3523
▁Its	-3524
▁Mon	-3525
▁Six	-3526
▁Vik	-3527
▁ast	-3528
▁bat	-3529
▁div	-3530
▁odd	-3531
icide	-3532
igned	-3533
resne	-3534
ulous	-3535
▁Boss	-3536
▁CASE	-3537
▁Pers	-3538
▁Plan	-3539
▁WITH	-3540
▁club	-3541
▁cute	-3542
▁east	-3543
▁libr	-3544
▁rice	-3545
▁shar	-3546
▁susp	-3547
hatter	-3548
▁Billy	-3549
▁Black	-3550
▁Brice	-3551
▁Drago	-3552
▁Durga	-3553
▁Hurry	-3554
▁Seven	-3555
▁books	-3556
▁claim	-3557
▁dance	-3558
▁focus	-3559
▁gives	-3560
▁ident	-3561
▁illeg	-3562
▁loyal	-3563
▁often	-3564
▁shoes	-3565
▁truly	-3566
▁turns	-3567
ference	-3568
ruction	-3569
▁Always	-3570
▁Wonder	-3571
▁afford	-3572
▁babies	-3573
▁beauty	-3574
▁flying	-3575
▁leader	-3576
▁leaves	-3577
▁locked	-3578
▁picked	-3579
▁travel	-3580
pecially	-3581
▁Colonel	-3582
▁singing	-3583
▁staying	-3584
▁Dufresne	-3585
▁LAUGHING	-3586
▁Saturday	-3587
▁handsome	-3588
▁medicine	-3589
▁millions	-3590
▁pressure	-3591
▁shooting	-3592
▁Christian	-3593
▁experience	-3594
▁understood	-3595
9.	-3596
GE	-3597
KS	-3598
OO	-3599
PS	-3600
gn	-3601
wa	-3602
▁0	-3603
ARM	-3604
ERS	-3605
com	-3606
gly	-3607
iah	-3608
ipe	-3609
▁JO	-3610
erve	-3611
just	-3612
pper	-3613
reet	-3614
▁Dom	-3615
▁Had	-3616
▁Min	-3617
▁Rom	-3618
▁Squ	-3619
▁Win	-3620
▁obs	-3621
▁tem	-3622
▁tun	-3623
▁wit	-3624
athan	-3625
ching	-3626
eared	-3627
esome	-3628
itive	-3629
orses	-3630
range	-3631
▁Best	-3632
▁Corp	-3633
▁Eyes	-3634
▁Four	-3635
▁GRUN	-3636
▁High	-3637
▁Lois	-3638
▁Madi	-3639
▁Shit	-3640
▁bord	-3641
▁dude	-3642
▁dump	-3643
▁incl	-3644
▁jour	-3645
▁mort	-3646
▁race	-3647
▁rain	-3648
▁reck	-3649
▁sand	-3650
▁troo	-3651
▁ALARM	-3652
▁Blood	-3653
▁Paris	-3654
▁Until	-3655
▁Wayne	-3656
▁embar	-3657
▁glory	-3658
▁green	-3659
▁grown	-3660
▁moved	-3661
▁outta	-3662
▁photo	-3663
▁spare	-3664
lfriend	-3665
▁Forget	-3666
▁TREVOR	-3667
▁access	-3668
▁agreed	-3669
▁favour	-3670
▁fought	-3671
▁nearly	-3672
▁saving	-3673
▁winter	-3674
▁Alright	-3675
▁Mission	-3676
▁captain	-3677
▁created	-3678
▁darling	-3679
▁excited	-3680
▁further	-3681
▁helping	-3682
▁neither	-3683
▁package	-3684
▁pulling	-3685
▁teacher	-3686
▁turning	-3687
▁approach	-3688
▁brothers	-3689
▁complain	-3690
▁favorite	-3691
▁magician	-3692
▁disappear	-3693
▁difference	-3694
EO	-3695
IO	-3696
bu	-3697
mo	-3698
IND	-3699
IST	-3700
MAN	-3701
awn	-3702
ese	-3703
fit	-3704
icc	-3705
rib	-3706
ser	-3707
ued	-3708
▁Gl	-3709
▁MA	-3710
▁NE	-3711
▁RE	-3712
▁Sl	-3713
▁Ty	-3714
▁VO	-3715
▁Yo	-3716
▁hy	-3717
amed	-3718
down	-3719
fort	-3720
gger	-3721
hard	-3722
idge	-3723
itor	-3724
noon	-3725
odes	-3726
ooks	-3727
riff	-3728
ruit	-3729
▁Bel	-3730
▁ENG	-3731
▁Hal	-3732
▁NOW	-3733
▁Res	-3734
▁Sor	-3735
▁aut	-3736
▁cre	-3737
▁deg	-3738
▁lic	-3739
▁wat	-3740
bonne	-3741
gress	-3742
▁Aren	-3743
▁BOTH	-3744
▁Whoa	-3745
▁Year	-3746
▁babe	-3747
▁bunk	-3748
▁disg	-3749
▁dust	-3750
▁loss	-3751
▁rout	-3752
▁size	-3753
▁wild	-3754
ration	-3755
though	-3756
▁WOMAN	-3757
▁climb	-3758
▁fleet	-3759
▁lunch	-3760
▁memor	-3761
▁screw	-3762
▁tribe	-3763
▁upset	-3764
cessary	-3765
▁accord	-3766
▁boring	-3767
▁eating	-3768
▁hoping	-3769
▁horses	-3770
▁manage	-3771
▁notice	-3772
▁awesome	-3773
▁capital	-3774
▁convers	-3775
▁introdu	-3776
▁reached	-3777
▁science	-3778
▁wearing	-3779
▁whether	-3780
▁Sorbonne	-3781
▁communic	-3782
▁innocent	-3783
▁investig	-3784
▁merchant	-3785
▁stronger	-3786
▁Templeton	-3787
▁committed	-3788
▁emergency	-3789
▁following	-3790
▁operation	-3791
▁recognize	-3792
▁seriously	-3793
▁wondering	-3794
▁girlfriend	-3795
▁responsible	-3796
pa	-3797
ALL	-3798
ATE	-3799
col	-3800
cum	-3801
ili	-3802
mas	-3803
now	-3804
par	-3805
uce	-3806
zen	-3807
▁1.	-3808
▁DE	-3809
▁Ra	-3810
▁Um	-3811
ADIO	-3812
chen	-3813
cise	-3814
cked	-3815
edom	-3816
hood	-3817
oshi	-3818
rass	-3819
ueen	-3820
uter	-3821
youb	-3822
▁ARE	-3823
▁Boy	-3824
▁FOR	-3825
▁HER	-3826
▁Him	-3827
▁OFF	-3828
▁Ric	-3829
▁Sal	-3830
▁gas	-3831
▁mov	-3832
▁pul	-3833
▁rat	-3834
▁wet	-3835
alent	-3836
assin	-3837
atory	-3838
house	-3839
imens	-3840
rench	-3841
▁Cong	-3842
▁Copy	-3843
▁Iron	-3844
▁Pick	-3845
▁WANT	-3846
▁Wick	-3847
▁bite	-3848
▁conv	-3849
▁crow	-3850
▁dies	-3851
▁draw	-3852
▁dumb	-3853
▁gang	-3854
▁hadn	-3855
▁held	-3856
▁keys	-3857
▁nine	-3858
▁port	-3859
▁pure	-3860
▁rate	-3861
▁shop	-3862
▁site	-3863
▁swim	-3864
▁Ayoub	-3865
▁CLICK	-3866
▁Korea	-3867
▁Madam	-3868
▁RADIO	-3869
▁VOICE	-3870
▁aware	-3871
▁balls	-3872
▁bunch	-3873
▁calls	-3874
▁conqu	-3875
▁fresh	-3876
▁lines	-3877
▁pills	-3878
▁raise	-3879
▁scene	-3880
▁shift	-3881
▁swing	-3882
▁weeke	-3883
▁whose	-3884
▁woods	-3885
▁Castle	-3886
▁Franck	-3887
▁Robert	-3888
▁advice	-3889
▁border	-3890
▁extrem	-3891
▁faster	-3892
▁letter	-3893
▁scream	-3894
▁spirit	-3895
▁stairs	-3896
▁stolen	-3897
▁talked	-3898
▁RINGING	-3899
▁breathe	-3900
▁driving	-3901
▁fingers	-3902
▁illegal	-3903
▁krypton	-3904
▁reading	-3905
▁request	-3906
▁towards	-3907
▁believed	-3908
▁recently	-3909
▁SCREAMING	-3910
▁boyfriend	-3911
▁breathing	-3912
▁obviously	-3913
▁thousands	-3914
▁responsibility	-3915
IL	-3916
do	-3917
ki	-3918
mu	-3919
eat	-3920
hwa	-3921
ico	-3922
iff	-3923
isp	-3924
oba	-3925
thy	-3926
wor	-3927
▁25	-3928
▁Ol	-3929
▁ur	-3930
atsu	-3931
ceed	-3932
eech	-3933
ency	-3934
etic	-3935
fety	-3936
hand	-3937
iced	-3938
iest	-3939
itus	-3940
look	-3941
ocks	-3942
olly	-3943
ruct	-3944
▁Far	-3945
▁GAS	-3946
▁Jon	-3947
▁ONE	-3948
▁Pet	-3949
▁Sol	-3950
▁Woo	-3951
▁Wow	-3952
▁deb	-3953
▁glo	-3954
▁hom	-3955
▁vol	-3956
ISTIN	-3957
ample	-3958
cking	-3959
ender	-3960
ently	-3961
fered	-3962
ustom	-3963
verse	-3964
▁Camp	-3965
▁Chan	-3966
▁Form	-3967
▁Godd	-3968
▁Home	-3969
▁Jung	-3970
▁Koba	-3971
▁SIGH	-3972
▁Sign	-3973
▁Wake	-3974
▁arms	-3975
▁bare	-3976
▁bike	-3977
▁copy	-3978
▁debt	-3979
▁decl	-3980
▁dick	-3981
▁duty	-3982
▁edge	-3983
▁fate	-3984
▁fuel	-3985
▁inha	-3986
▁papa	-3987
▁path	-3988
▁quit	-3989
▁rese	-3990
▁rise	-3991
▁soft	-3992
▁sons	-3993
▁wolf	-3994
ential	-3995
imeter	-3996
ushing	-3997
▁Brend	-3998
▁Clear	-3999
▁Grace	-4000
▁Tiger	-4001
▁Tower	-4002
▁Trans	-4003
▁Young	-4004
▁agent	-4005
▁chose	-4006
▁corre	-4007
▁eaten	-4008
▁giant	-4009
▁incre	-4010
▁legal	-4011
▁loser	-4012
▁names	-4013
▁ocean	-4014
▁ought	-4015
▁plans	-4016
▁punch	-4017
▁react	-4018
▁river	-4019
▁sacri	-4020
▁shirt	-4021
▁stage	-4022
▁total	-4023
ISTINCT	-4024
olution	-4025
▁Gotham	-4026
▁Greely	-4027
▁bright	-4028
▁clever	-4029
▁common	-4030
▁estate	-4031
▁explos	-4032
▁failed	-4033
▁gather	-4034
▁helped	-4035
▁hiding	-4036
▁likely	-4037
▁raised	-4038
▁repeat	-4039
▁resist	-4040
▁satell	-4041
▁scient	-4042
▁served	-4043
▁tricks	-4044
▁BEEPING	-4045
▁Cleitus	-4046
▁Warrior	-4047
▁becomes	-4048
▁burning	-4049
▁factory	-4050
▁library	-4051
▁patient	-4052
▁percent	-4053
▁suspect	-4054
▁Security	-4055
▁drinking	-4056
▁memories	-4057
▁pictures	-4058
▁embarrass	-4059
▁competition	-4060
BY	-4061
vi	-4062
ENT	-4063
ISH	-4064
ORE	-4065
bes	-4066
boy	-4067
how	-4068
izz	-4069
lon	-4070
lor	-4071
rit	-4072
rog	-4073
uri	-4074
▁AS	-4075
▁Ay	-4076
▁Eb	-4077
▁GI	-4078
▁ID	-4079
▁PA	-4080
▁ju	-4081
ares	-4082
ateg	-4083
case	-4084
ices	-4085
icle	-4086
iday	-4087
idow	-4088
ilan	-4089
like	-4090
mber	-4091
phan	-4092
view	-4093
▁Cer	-4094
▁Cha	-4095
▁Fin	-4096
▁Joe	-4097
▁Old	-4098
▁WHY	-4099
▁Won	-4100
▁avo	-4101
▁cup	-4102
▁dry	-4103
▁enc	-4104
▁jew	-4105
▁tap	-4106
asion	-4107
cient	-4108
clock	-4109
olves	-4110
stone	-4111
ushed	-4112
vator	-4113
▁Comp	-4114
▁Cont	-4115
▁Easy	-4116
▁Fine	-4117
▁Hans	-4118
▁Joes	-4119
▁Lucy	-4120
▁Poor	-4121
▁Pret	-4122
▁Talk	-4123
▁arse	-4124
▁beer	-4125
▁bene	-4126
▁dogs	-4127
▁grad	-4128
▁hall	-4129
▁jobs	-4130
▁joke	-4131
▁lies	-4132
▁loud	-4133
▁push	-4134
▁sack	-4135
▁type	-4136
atural	-4137
ground	-4138
▁Doesn	-4139
▁Inter	-4140
▁Start	-4141
▁Steve	-4142
▁THERE	-4143
▁alpha	-4144
▁birds	-4145
▁chase	-4146
▁enter	-4147
▁freak	-4148
▁ideas	-4149
▁judge	-4150
▁lover	-4151
▁proof	-4152
▁separ	-4153
▁sever	-4154
▁stink	-4155
▁trial	-4156
▁usual	-4157
▁Eboshi	-4158
▁French	-4159
▁confir	-4160
▁fuckin	-4161
▁hidden	-4162
▁island	-4163
▁monkey	-4164
▁online	-4165
▁pieces	-4166
▁places	-4167
▁poison	-4168
▁reckon	-4169
ointment	-4170
▁Command	-4171
▁Krypton	-4172
▁Majesty	-4173
▁Russian	-4174
▁SINGING	-4175
▁Service	-4176
▁animals	-4177
▁council	-4178
▁courage	-4179
▁figured	-4180
▁hearing	-4181
▁license	-4182
▁ordered	-4183
▁private	-4184
▁product	-4185
▁setting	-4186
▁stories	-4187
▁weekend	-4188
▁written	-4189
▁breaking	-4190
▁mistakes	-4191
▁murdered	-4192
▁opportun	-4193
▁Christmas	-4194
▁Professor	-4195
▁assistant	-4196
▁certainly	-4197
▁commander	-4198
▁otherwise	-4199
▁secretary	-4200
▁interesting	-4201
▁conversation	-4202
.'	-4203
IE	-4204
kn	-4205
la	-4206
zz	-4207
EAH	-4208
ORN	-4209
ami	-4210
arg	-4211
cra	-4212
hin	-4213
ids	-4214
oop	-4215
see	-4216
urs	-4217
▁BU	-4218
▁CO	-4219
▁HA	-4220
ache	-4221
aily	-4222
ased	-4223
east	-4224
icks	-4225
inct	-4226
mmer	-4227
mosp	-4228
ndry	-4229
rink	-4230
well	-4231
▁Ain	-4232
▁Ban	-4233
▁Bye	-4234
▁CAN	-4235
▁Goa	-4236
▁Hot	-4237
▁IND	-4238
▁Int	-4239
▁Mer	-4240
▁Pal	-4241
▁Ran	-4242
▁Rog	-4243
▁Ros	-4244
▁WHO	-4245
▁gro	-4246
▁hug	-4247
▁sle	-4248
ATTER	-4249
ained	-4250
annis	-4251
ellig	-4252
gnant	-4253
honse	-4254
iccup	-4255
icing	-4256
itude	-4257
ouses	-4258
works	-4259
▁Army	-4260
▁Cass	-4261
▁Coll	-4262
▁Drop	-4263
▁Lane	-4264
▁Mako	-4265
▁Many	-4266
▁None	-4267
▁Pand	-4268
▁Play	-4269
▁Prom	-4270
▁THEY	-4271
▁YEAH	-4272
▁band	-4273
▁bang	-4274
▁chur	-4275
▁deck	-4276
▁fake	-4277
▁grab	-4278
▁lone	-4279
▁myth	-4280
▁quar	-4281
▁reas	-4282
▁ugly	-4283
▁whom	-4284
leased	-4285
mother	-4286
▁Afric	-4287
▁Cross	-4288
▁Happy	-4289
▁Peter	-4290
▁SIGHS	-4291
▁Sarah	-4292
▁Willi	-4293
▁beach	-4294
▁beast	-4295
▁cells	-4296
▁fruit	-4297
▁mercy	-4298
▁movie	-4299
avender	-4300
ulation	-4301
▁Better	-4302
▁LAUGHS	-4303
▁bunker	-4304
▁damage	-4305
▁demand	-4306
▁former	-4307
▁member	-4308
▁prefer	-4309
▁showed	-4310
▁speech	-4311
▁walked	-4312
▁Goodbye	-4313
▁clearly	-4314
▁confirm	-4315
▁disturb	-4316
▁finding	-4317
▁freedom	-4318
▁goodbye	-4319
▁herself	-4320
▁keeping	-4321
▁kitchen	-4322
▁nowhere	-4323
▁prayers	-4324
▁remains	-4325
▁scratch	-4326
▁trident	-4327
▁trigger	-4328
▁usually	-4329
▁winning	-4330
▁Alphonse	-4331
▁computer	-4332
▁confused	-4333
▁criminal	-4334
▁enjoying	-4335
▁soldiers	-4336
▁thoughts	-4337
▁treasure	-4338
▁universe	-4339
▁violence	-4340
▁effective	-4341
▁interview	-4342
▁necessary	-4343
▁relations	-4344
▁terrorist	-4345
fortunately	-4346
▁INDISTINCT	-4347
▁absolutely	-4348
▁interested	-4349
▁particular	-4350
.!	-4351
2.	-4352
FT	-4353
TH	-4354
py	-4355
zo	-4356
EAD	-4357
ROW	-4358
aff	-4359
asc	-4360
hys	-4361
pes	-4362
ral	-4363
rum	-4364
yle	-4365
▁Bu	-4366
▁Sk	-4367
INGS	-4368
ONNA	-4369
abad	-4370
aked	-4371
face	-4372
give	-4373
ipsy	-4374
itan	-4375
itty	-4376
lose	-4377
omed	-4378
oret	-4379
pose	-4380
rant	-4381
rell	-4382
sson	-4383
year	-4384
▁Ben	-4385
▁Bog	-4386
▁CHE	-4387
▁Cob	-4388
▁HIS	-4389
▁Kim	-4390
▁OUT	-4391
▁Pym	-4392
▁Wig	-4393
▁ate	-4394
▁cab	-4395
▁cli	-4396
▁inj	-4397
▁led	-4398
▁pan	-4399
▁pil	-4400
▁spl	-4401
▁und	-4402
▁unp	-4403
ARING	-4404
ality	-4405
board	-4406
chill	-4407
iment	-4408
onday	-4409
▁BABY	-4410
▁Cons	-4411
▁Dead	-4412
▁Flag	-4413
▁Fore	-4414
▁Holy	-4415
▁Need	-4416
▁Prep	-4417
▁Same	-4418
▁Wind	-4419
▁boat	-4420
▁flat	-4421
▁laws	-4422
▁note	-4423
▁phot	-4424
▁scar	-4425
▁tort	-4426
▁tree	-4427
▁vote	-4428
▁whis	-4429
antage	-4430
ending	-4431
menion	-4432
usting	-4433
▁Carly	-4434
▁Chief	-4435
▁GONNA	-4436
▁Night	-4437
▁Ready	-4438
▁Whose	-4439
▁brief	-4440
▁clock	-4441
▁dirty	-4442
▁ended	-4443
▁games	-4444
▁mirac	-4445
▁named	-4446
▁rocks	-4447
▁shows	-4448
▁silly	-4449
▁steel	-4450
▁suits	-4451
▁trade	-4452
▁wives	-4453
ategory	-4454
chilles	-4455
iculous	-4456
ization	-4457
▁Akilan	-4458
▁ENGINE	-4459
▁Edward	-4460
▁Hitler	-4461
▁Pretty	-4462
▁Sounds	-4463
▁Street	-4464
▁Wiggin	-4465
▁appear	-4466
▁create	-4467
▁credit	-4468
▁driver	-4469
▁fallen	-4470
▁headed	-4471
▁heaven	-4472
▁intern	-4473
▁itself	-4474
▁lights	-4475
▁settle	-4476
▁troops	-4477
▁victim	-4478
▁Believe	-4479
▁Stannis	-4480
▁advance	-4481
▁bedroom	-4482
▁cleared	-4483
▁comfort	-4484
▁hanging	-4485
▁journey	-4486
▁plastic	-4487
▁reasons	-4488
▁showing	-4489
▁Lavender	-4490
▁bathroom	-4491
▁bringing	-4492
▁practice	-4493
▁pregnant	-4494
▁Parmenion	-4495
▁afternoon	-4496
▁apartment	-4497
▁beginning	-4498
▁concerned	-4499
▁condition	-4500
▁professor	-4501
ratulations	-4502
'?	-4503
9,	-4504
LA	-4505
PH	-4506
we	-4507
ORT	-4508
cas	-4509
dle	-4510
eds	-4511
for	-4512
ips	-4513
lys	-4514
sey	-4515
▁00	-4516
▁14	-4517
▁21	-4518
▁Di	-4519
▁SU	-4520
▁fa	-4521
aker	-4522
ancy	-4523
ened	-4524
ergy	-4525
fire	-4526
ford	-4527
hold	-4528
jack	-4529
jing	-4530
lect	-4531
lesh	-4532
lest	-4533
load	-4534
loyd	-4535
roat	-4536
roll	-4537
shot	-4538
ults	-4539
vert	-4540
viet	-4541
wood	-4542
▁194	-4543
▁Bab	-4544
▁Bon	-4545
▁Cut	-4546
▁Dri	-4547
▁End	-4548
▁FRE	-4549
▁HON	-4550
▁Lar	-4551
▁Rep	-4552
▁Ter	-4553
▁Tet	-4554
▁ban	-4555
▁dig	-4556
▁hol	-4557
▁mid	-4558
▁non	-4559
▁sin	-4560
CHING	-4561
craft	-4562
ences	-4563
holes	-4564
ially	-4565
iring	-4566
known	-4567
lings	-4568
using	-4569
usted	-4570
▁Asia	-4571
▁Aunt	-4572
▁BACK	-4573
▁Cent	-4574
▁Coop	-4575
▁Girl	-4576
▁HORN	-4577
▁Half	-4578
▁Hard	-4579
▁KILL	-4580
▁Kong	-4581
▁LIKE	-4582
▁Mean	-4583
▁Rock	-4584
▁Swed	-4585
▁WELL	-4586
▁crit	-4587
▁earn	-4588
▁grew	-4589
▁hill	-4590
▁pred	-4591
▁runs	-4592
▁sour	-4593
▁spin	-4594
▁trap	-4595
itions	-4596
▁Agent	-4597
▁Cobra	-4598
▁Hanna	-4599
▁Holly	-4600
▁Letty	-4601
▁Olsen	-4602
▁Puppy	-4603
▁Thing	-4604
▁codes	-4605
▁drone	-4606
▁elect	-4607
▁fence	-4608
▁finan	-4609
▁fixed	-4610
▁initi	-4611
▁leads	-4612
▁monst	-4613
▁pound	-4614
▁rings	-4615
▁sched	-4616
▁shake	-4617
▁stays	-4618
▁stops	-4619
▁taste	-4620
▁toast	-4621
arently	-4622
▁Andrew	-4623
▁Anyone	-4624
▁Darius	-4625
▁Doctor	-4626
▁Enough	-4627
▁Miller	-4628
▁Monday	-4629
▁acting	-4630
▁affect	-4631
▁animal	-4632
▁atmosp	-4633
▁brings	-4634
▁combat	-4635
▁dimens	-4636
▁garden	-4637
▁gotten	-4638
▁images	-4639
▁instit	-4640
▁lonely	-4641
▁safety	-4642
▁supply	-4643
▁wallet	-4644
▁Climate	-4645
▁Goddamn	-4646
▁Morning	-4647
▁accompl	-4648
▁allowed	-4649
▁coordin	-4650
▁current	-4651
▁dropped	-4652
▁exposed	-4653
▁growing	-4654
▁hitting	-4655
▁letters	-4656
▁process	-4657
▁revenge	-4658
▁streets	-4659
▁trapped	-4660
▁wasting	-4661
▁witness	-4662
▁Achilles	-4663
▁Although	-4664
▁National	-4665
▁Princess	-4666
▁elevator	-4667
▁facility	-4668
▁properly	-4669
▁suddenly	-4670
▁advantage	-4671
▁searching	-4672
▁connection	-4673
▁yourselves	-4674
▁Wonderstone	-4675
▁appointment	-4676
▁grandmother	-4677
-2	-4678
bl	-4679
gl	-4680
sp	-4681
wl	-4682
AST	-4683
ONG	-4684
OUD	-4685
ado	-4686
ato	-4687
jin	-4688
olt	-4689
pin	-4690
rau	-4691
uel	-4692
ulf	-4693
uro	-4694
▁23	-4695
▁AT	-4696
▁Bo	-4697
▁Ev	-4698
▁Im	-4699
▁Mi	-4700
▁Wh	-4701
OUGH	-4702
OUND	-4703
agon	-4704
aled	-4705
bles	-4706
enly	-4707
etch	-4708
fice	-4709
hile	-4710
iece	-4711
illa	-4712
llen	-4713
olis	-4714
omon	-4715
oned	-4716
▁Abs	-4717
▁Acc	-4718
▁CIA	-4719
▁Cam	-4720
▁Day	-4721
▁Des	-4722
▁Doc	-4723
▁ELE	-4724
▁Edd	-4725
▁GOT	-4726
▁HOW	-4727
▁Sat	-4728
▁Tri	-4729
▁Wom	-4730
▁Yum	-4731
▁adm	-4732
▁bur	-4733
▁hig	-4734
▁maj	-4735
▁mob	-4736
▁rob	-4737
▁veh	-4738
▁vow	-4739
ables	-4740
geant	-4741
ieves	-4742
inary	-4743
istan	-4744
ledge	-4745
night	-4746
uding	-4747
xygen	-4748
▁CELL	-4749
▁Earl	-4750
▁Feel	-4751
▁Frau	-4752
▁Inst	-4753
▁Jaye	-4754
▁Mary	-4755
▁OVER	-4756
▁Park	-4757
▁Rome	-4758
▁SOFT	-4759
▁Sant	-4760
▁Step	-4761
▁Tier	-4762
▁Vika	-4763
▁ears	-4764
▁fant	-4765
▁film	-4766
▁firm	-4767
▁golf	-4768
▁heat	-4769
▁hunt	-4770
▁nest	-4771
▁nons	-4772
▁nose	-4773
▁nuts	-4774
▁orig	-4775
▁pigs	-4776
▁rent	-4777
▁thin	-4778
▁view	-4779
▁wank	-4780
lysium	-4781
▁Close	-4782
▁Drink	-4783
▁Lasse	-4784
▁Roger	-4785
▁Snake	-4786
▁Sweet	-4787
▁Under	-4788
▁aband	-4789
▁alien	-4790
▁aside	-4791
▁below	-4792
▁brand	-4793
▁cares	-4794
▁delay	-4795
▁faith	-4796
▁grant	-4797
▁guide	-4798
▁juice	-4799
▁minds	-4800
▁oppos	-4801
▁owner	-4802
▁parts	-4803
▁pilot	-4804
▁pulse	-4805
▁scare	-4806
▁shots	-4807
▁shout	-4808
▁smile	-4809
▁stone	-4810
▁surve	-4811
▁thief	-4812
▁tooth	-4813
▁trave	-4814
ilities	-4815
ination	-4816
▁Almost	-4817
▁Except	-4818
▁Hiccup	-4819
▁Unless	-4820
▁asleep	-4821
▁brains	-4822
▁bridge	-4823
▁desire	-4824
▁energy	-4825
▁forced	-4826
▁jacket	-4827
▁joking	-4828
▁murder	-4829
▁played	-4830
▁points	-4831
▁pulled	-4832
▁regent	-4833
▁reject	-4834
▁wolves	-4835
▁BLARING	-4836
▁Babylon	-4837
▁Forgive	-4838
▁Grandpa	-4839
▁Solomon	-4840
▁Trident	-4841
▁answers	-4842
▁billion	-4843
▁comprom	-4844
▁loyalty	-4845
▁managed	-4846
▁planned	-4847
▁trained	-4848
▁willing	-4849
▁assassin	-4850
▁bleeding	-4851
▁evidence	-4852
▁feelings	-4853
▁intellig	-4854
▁possibly	-4855
▁released	-4856
▁research	-4857
▁sentence	-4858
▁stealing	-4859
▁stopping	-4860
▁survived	-4861
▁financial	-4862
▁happiness	-4863
▁impressed	-4864
▁sacrifice	-4865
▁investment	-4866
▁motherfuck	-4867
▁personally	-4868
▁protection	-4869
▁technology	-4870
▁opportunity	-4871
-4	-4872
.,	-4873
DK	-4874
SE	-4875
af	-4876
sa	-4877
ANG	-4878
ARD	-4879
NCH	-4880
OUT	-4881
acy	-4882
ald	-4883
ana	-4884
ano	-4885
bey	-4886
cho	-4887
dow	-4888
him	-4889
ils	-4890
ini	-4891
ipl	-4892
jah	-4893
rif	-4894
ula	-4895
▁1,	-4896
▁90	-4897
▁Er	-4898
▁KE	-4899
▁La	-4900
▁Up	-4901
▁WA	-4902
▁ho	-4903
book	-4904
cles	-4905
eefe	-4906
enry	-4907
hern	-4908
orge	-4909
oted	-4910
rang	-4911
that	-4912
uled	-4913
uman	-4914
▁Alf	-4915
▁BUR	-4916
▁COM	-4917
▁Cra	-4918
▁DID	-4919
▁Dis	-4920
▁Gre	-4921
▁Hay	-4922
▁Hob	-4923
▁Hor	-4924
▁Jan	-4925
▁MEN	-4926
▁Mel	-4927
▁Naz	-4928
▁Pat	-4929
▁Sur	-4930
▁gar	-4931
▁hur	-4932
▁mix	-4933
▁net	-4934
allow	-4935
antic	-4936
aries	-4937
averi	-4938
illed	-4939
loved	-4940
ounce	-4941
usion	-4942
velop	-4943
▁Berk	-4944
▁COME	-4945
▁Down	-4946
▁GIVE	-4947
▁Gods	-4948
▁Gray	-4949
▁June	-4950
▁Khan	-4951
▁LOUD	-4952
▁Left	-4953
▁Luck	-4954
▁Moon	-4955
▁Port	-4956
▁SEAN	-4957
▁Such	-4958
▁apes	-4959
▁bail	-4960
▁cake	-4961
▁lied	-4962
▁mail	-4963
▁rabb	-4964
▁remo	-4965
▁reve	-4966
▁slip	-4967
▁tale	-4968
▁tong	-4969
▁warn	-4970
amatic	-4971
ancing	-4972
ession	-4973
isions	-4974
oretto	-4975
▁Alice	-4976
▁Grady	-4977
▁Henry	-4978
▁Jimmy	-4979
▁Lucas	-4980
▁Might	-4981
▁Pandu	-4982
▁Petra	-4983
▁SPEAK	-4984
▁Shoot	-4985
▁State	-4986
▁Storm	-4987
▁cloud	-4988
▁crash	-4989
▁cream	-4990
▁crowd	-4991
▁divor	-4992
▁drove	-4993
▁flesh	-4994
▁hated	-4995
▁hired	-4996
▁jewel	-4997
▁raven	-4998
▁score	-4999
▁stret	-5000
▁trunk	-5001
▁units	-5002
▁wrote	-5003
artment	-5004
▁Africa	-5005
▁Battle	-5006
▁Carina	-5007
▁Coming	-5008
▁Elijah	-5009
▁Hannah	-5010
▁Hanson	-5011
▁Kaveri	-5012
▁Newton	-5013
▁School	-5014
▁Soviet	-5015
▁armies	-5016
▁barbar	-5017
▁barely	-5018
▁cities	-5019
▁custom	-5020
▁desert	-5021
▁easily	-5022
▁farmer	-5023
▁guests	-5024
▁neighb	-5025
▁neural	-5026
▁oxygen	-5027
▁shower	-5028
▁spoken	-5029
▁strugg	-5030
▁surely	-5031
▁therap	-5032
▁Brendan	-5033
▁English	-5034
▁Neither	-5035
▁Toretto	-5036
▁attempt	-5037
▁beating	-5038
▁begging	-5039
▁bullets	-5040
▁changes	-5041
▁chasing	-5042
▁correct	-5043
▁defense	-5044
▁elysium	-5045
▁entered	-5046
▁harvest	-5047
▁hunting	-5048
▁natural	-5049
▁numbers	-5050
▁pirates	-5051
▁prepare	-5052
▁replace	-5053
▁several	-5054
▁suicide	-5055
▁thieves	-5056
▁CHEERING	-5057
▁Minister	-5058
▁Tomorrow	-5059
▁aircraft	-5060
▁category	-5061
▁consider	-5062
▁distance	-5063
▁minister	-5064
▁missiles	-5065
▁nonsense	-5066
▁property	-5067
▁Gentlemen	-5068
▁confirmed	-5069
▁continues	-5070
▁introduce	-5071
▁potential	-5072
▁receiving	-5073
▁Especially	-5074
▁conference	-5075
▁downstairs	-5076
',	-5077
ST	-5078
ko	-5079
▁,	-5080
00.	-5081
AME	-5082
BER	-5083
ESS	-5084
OOK	-5085
PEN	-5086
aka	-5087
ari	-5088
bal	-5089
bel	-5090
bra	-5091
eps	-5092
ifu	-5093
ito	-5094
ply	-5095
por	-5096
ril	-5097
sit	-5098
udd	-5099
vir	-5100
▁2,	-5101
▁AB	-5102
▁AR	-5103
▁Aw	-5104
▁DK	-5105
▁GU	-5106
▁IF	-5107
▁Li	-5108
▁TA	-5109
IRES	-5110
ROWD	-5111
anyu	-5112
athe	-5113
aval	-5114
back	-5115
bass	-5116
bbed	-5117
iate	-5118
iner	-5119
ocol	-5120
vail	-5121
▁ANN	-5122
▁Ash	-5123
▁Def	-5124
▁Den	-5125
▁Det	-5126
▁Jew	-5127
▁KDK	-5128
▁Mex	-5129
▁Mic	-5130
▁Nah	-5131
▁Ret	-5132
▁WAY	-5133
▁ach	-5134
▁aud	-5135
▁bal	-5136
▁fed	-5137
▁gig	-5138
▁gut	-5139
▁imm	-5140
▁jam	-5141
▁mum	-5142
▁nor	-5143
▁oil	-5144
▁pal	-5145
▁rig	-5146
▁rom	-5147
▁smo	-5148
▁vac	-5149
akles	-5150
angle	-5151
berus	-5152
ected	-5153
eping	-5154
ights	-5155
inals	-5156
inese	-5157
licop	-5158
phone	-5159
ppers	-5160
urope	-5161
▁Bond	-5162
▁Both	-5163
▁CLOS	-5164
▁Code	-5165
▁Free	-5166
▁Hall	-5167
▁Kent	-5168
▁Made	-5169
▁NEED	-5170
▁OPEN	-5171
▁Part	-5172
▁Sher	-5173
▁Snow	-5174
▁Soon	-5175
▁Sund	-5176
▁THEN	-5177
▁WILL	-5178
▁blew	-5179
▁bond	-5180
▁core	-5181
▁cous	-5182
▁cove	-5183
▁cree	-5184
▁desk	-5185
▁ding	-5186
▁educ	-5187
▁lack	-5188
▁lege	-5189
▁link	-5190
▁mama	-5191
▁obey	-5192
▁onto	-5193
▁phys	-5194
▁plus	-5195
▁pool	-5196
▁pump	-5197
▁salt	-5198
▁scav	-5199
▁tall	-5200
▁text	-5201
▁vice	-5202
▁whoa	-5203
atures	-5204
ealous	-5205
ective	-5206
icious	-5207
isters	-5208
prints	-5209
▁Abhim	-5210
▁April	-5211
▁CROWD	-5212
▁Frank	-5213
▁Human	-5214
▁Mommy	-5215
▁Morel	-5216
▁RINGS	-5217
▁Rance	-5218
▁Shifu	-5219
▁Speed	-5220
▁began	-5221
▁blast	-5222
▁chair	-5223
▁coast	-5224
▁demon	-5225
▁drown	-5226
▁drugs	-5227
▁fancy	-5228
▁liter	-5229
▁mater	-5230
▁study	-5231
▁trees	-5232
ropolis	-5233
underst	-5234
▁Brooks	-5235
▁Darren	-5236
▁Europe	-5237
▁Friday	-5238
▁Nathan	-5239
▁Things	-5240
▁Warden	-5241
▁Winter	-5242
▁affair	-5243
▁beings	-5244
▁church	-5245
▁commit	-5246
▁coward	-5247
▁cursed	-5248
▁drinks	-5249
▁escort	-5250
▁guards	-5251
▁hardly	-5252
▁inject	-5253
▁insult	-5254
▁joined	-5255
▁meters	-5256
▁option	-5257
▁priest	-5258
▁regret	-5259
▁remove	-5260
▁shrink	-5261
▁spring	-5262
▁stayed	-5263
▁throat	-5264
▁tongue	-5265
▁warned	-5266
▁Charlie	-5267
▁Chinese	-5268
▁Farrell	-5269
▁achieve	-5270
▁arrange	-5271
▁charact	-5272
▁chicken	-5273
▁clients	-5274
▁complic	-5275
▁deliver	-5276
▁details	-5277
▁failure	-5278
▁helicop	-5279
▁members	-5280
▁noticed	-5281
▁offered	-5282
▁passing	-5283
▁profess	-5284
▁records	-5285
▁release	-5286
▁secrets	-5287
▁sending	-5288
▁somehow	-5289
▁subject	-5290
▁unknown	-5291
▁younger	-5292
▁Cerberus	-5293
▁Herakles	-5294
▁accepted	-5295
▁bankrupt	-5296
▁basement	-5297
▁betrayed	-5298
▁darkness	-5299
▁dropping	-5300
▁expected	-5301
▁hundreds	-5302
▁received	-5303
▁solution	-5304
▁surround	-5305
▁survival	-5306
▁Abhimanyu	-5307
▁Macedonia	-5308
▁carefully	-5309
▁celebrate	-5310
▁perimeter	-5311
▁residence	-5312
▁Absolutely	-5313
▁disgusting	-5314
▁friendship	-5315
▁generation	-5316
▁misunderst	-5317
▁protecting	-5318
▁ridiculous	-5319
▁disappeared	-5320
▁Congratulations	-5321
FE	-5322
OL	-5323
ec	-5324
ji	-5325
sc	-5326
▁i	-5327
AND	-5328
ION	-5329
OUR	-5330
ads	-5331
bag	-5332
can	-5333
erk	-5334
mar	-5335
oon	-5336
ppy	-5337
rav	-5338
rig	-5339
win	-5340
▁Ge	-5341
▁Je	-5342
▁Ke	-5343
▁MU	-5344
ANCE	-5345
cend	-5346
eyed	-5347
fact	-5348
ggie	-5349
hank	-5350
hest	-5351
iley	-5352
iped	-5353
iste	-5354
itiz	-5355
iver	-5356
izon	-5357
mail	-5358
otic	-5359
outs	-5360
rade	-5361
rees	-5362
rely	-5363
uing	-5364
uses	-5365
▁Add	-5366
▁CEO	-5367
▁Gun	-5368
▁Kat	-5369
▁Lex	-5370
▁MOM	-5371
▁Mut	-5372
▁Neg	-5373
▁Rap	-5374
▁SHE	-5375
▁SOB	-5376
▁Saw	-5377
▁Sub	-5378
▁Ton	-5379
▁Tur	-5380
▁Ver	-5381
▁Yep	-5382
▁aim	-5383
▁dea	-5384
▁hel	-5385
▁ign	-5386
▁nap	-5387
▁pin	-5388
▁rip	-5389
▁rot	-5390
▁sen	-5391
▁sna	-5392
▁sou	-5393
▁tie	-5394
agine	-5395
aging	-5396
ament	-5397
ators	-5398
attoo	-5399
build	-5400
iance	-5401
ipped	-5402
irgin	-5403
istol	-5404
izing	-5405
munds	-5406
otion	-5407
viron	-5408
▁BELL	-5409
▁BURT	-5410
▁Babe	-5411
▁Bapt	-5412
▁Bogo	-5413
▁Conf	-5414
▁Fall	-5415
▁Gina	-5416
▁Jami	-5417
▁LOOK	-5418
▁Lock	-5419
▁STOP	-5420
▁Save	-5421
▁TELL	-5422
▁Tech	-5423
▁Vito	-5424
▁Wolf	-5425
▁YELL	-5426
▁ants	-5427
▁bars	-5428
▁belt	-5429
▁cras	-5430
▁evac	-5431
▁fund	-5432
▁horn	-5433
▁magn	-5434
▁opin	-5435
▁radi	-5436
▁stom	-5437
▁temp	-5438
▁tens	-5439
▁wave	-5440
▁wing	-5441
ameron	-5442
ateful	-5443
elling	-5444
ensive	-5445
icated	-5446
iction	-5447
ipment	-5448
lected	-5449
lessly	-5450
ulance	-5451
▁COULD	-5452
▁Death	-5453
▁Eddie	-5454
▁Eight	-5455
▁Gipsy	-5456
▁Greek	-5457
▁Guess	-5458
▁HANNA	-5459
▁Hobbs	-5460
▁Hyder	-5461
▁Third	-5462
▁Tooth	-5463
▁alarm	-5464
▁alert	-5465
▁anger	-5466
▁banks	-5467
▁based	-5468
▁bound	-5469
▁bucks	-5470
▁campa	-5471
▁codex	-5472
▁const	-5473
▁crush	-5474
▁dozen	-5475
▁estab	-5476
▁faces	-5477
▁fools	-5478
▁grave	-5479
▁habit	-5480
▁hurts	-5481
▁moves	-5482
▁occup	-5483
▁older	-5484
▁purse	-5485
▁remem	-5486
▁route	-5487
▁split	-5488
▁terms	-5489
▁vault	-5490
illance	-5491
oration	-5492
▁CLOSES	-5493
▁GROANS	-5494
▁Luthor	-5495
▁Reggie	-5496
▁SOFTLY	-5497
▁Stupid	-5498
▁Waller	-5499
▁Yellow	-5500
▁amount	-5501
▁arrang	-5502
▁assume	-5503
▁button	-5504
▁cheese	-5505
▁easier	-5506
▁famous	-5507
▁fellow	-5508
▁finest	-5509
▁flower	-5510
▁golden	-5511
▁hearts	-5512
▁highly	-5513
▁insane	-5514
▁lately	-5515
▁legend	-5516
▁lesson	-5517
▁orphan	-5518
▁rescue	-5519
▁shield	-5520
▁signed	-5521
▁sooner	-5522
▁source	-5523
▁suffer	-5524
▁talent	-5525
▁unlike	-5526
▁yellow	-5527
▁Banning	-5528
▁Cameron	-5529
▁Edmunds	-5530
▁Richard	-5531
▁SCREAMS	-5532
▁Special	-5533
▁Whether	-5534
▁ancient	-5535
▁assault	-5536
▁attacks	-5537
▁beloved	-5538
▁capable	-5539
▁closing	-5540
▁compass	-5541
▁conquer	-5542
▁crossed	-5543
▁degrees	-5544
▁fishing	-5545
▁flowers	-5546
▁foreign	-5547
▁greater	-5548
▁heavily	-5549
▁horizon	-5550
▁inhaler	-5551
▁jealous	-5552
▁knowing	-5553
▁leaders	-5554
▁matters	-5555
▁miracle	-5556
▁missile	-5557
▁mutants	-5558
▁prevent	-5559
▁purpose	-5560
▁reality	-5561
▁species	-5562
▁staring	-5563
▁thunder	-5564
▁treason	-5565
▁Baptiste	-5566
▁GROANING	-5567
▁GRUNTING	-5568
▁Probably	-5569
▁Sergeant	-5570
▁Williams	-5571
▁bastards	-5572
▁counting	-5573
▁critical	-5574
▁directly	-5575
▁hostages	-5576
▁original	-5577
▁realized	-5578
▁returned	-5579
▁showroom	-5580
▁standard	-5581
▁Hyderabad	-5582
▁Secretary	-5583
▁Toothless	-5584
▁ambulance	-5585
▁authority	-5586
▁character	-5587
▁criminals	-5588
▁expecting	-5589
▁satellite	-5590
▁treatment	-5591
▁atmosphere	-5592
▁disappoint	-5593
▁eventually	-5594
▁Unfortunately	-5595
-1	-5596
AB	-5597
EM	-5598
IG	-5599
OY	-5600
ka	-5601
oh	-5602
aur	-5603
cha	-5604
enn	-5605
hew	-5606
iel	-5607
iod	-5608
ira	-5609
kin	-5610
met	-5611
nal	-5612
roc	-5613
▁Kr	-5614
▁Sy	-5615
▁ll	-5616
▁ls	-5617
▁mi	-5618
▁wa	-5619
ITCH	-5620
ains	-5621
apan	-5622
aper	-5623
aret	-5624
atri	-5625
atto	-5626
ench	-5627
enha	-5628
fast	-5629
ials	-5630
inda	-5631
isis	-5632
itol	-5633
mann	-5634
mler	-5635
nels	-5636
omic	-5637
orts	-5638
pite	-5639
shal	-5640
uick	-5641
wide	-5642
▁12.	-5643
▁APP	-5644
▁Bea	-5645
▁Bes	-5646
▁Chi	-5647
▁Fre	-5648
▁Han	-5649
▁Law	-5650
▁Loc	-5651
▁Rav	-5652
▁Sad	-5653
▁Wen	-5654
▁bug	-5655
▁fem	-5656
▁fro	-5657
▁gon	-5658
▁lit	-5659
▁pod	-5660
▁rub	-5661
▁rum	-5662
▁sch	-5663
▁una	-5664
▁wis	-5665
abeth	-5666
asing	-5667
bassy	-5668
bered	-5669
celer	-5670
egers	-5671
hamed	-5672
isted	-5673
jinju	-5674
opath	-5675
owing	-5676
uated	-5677
venue	-5678
water	-5679
▁Bean	-5680
▁Bill	-5681
▁Brit	-5682
▁CALL	-5683
▁Dist	-5684
▁Grab	-5685
▁Lann	-5686
▁Long	-5687
▁Mark	-5688
▁Nort	-5689
▁OKAY	-5690
▁Pent	-5691
▁Plus	-5692
▁Rick	-5693
▁SOME	-5694
▁Team	-5695
▁Work	-5696
▁ance	-5697
▁boll	-5698
▁butt	-5699
▁cage	-5700
▁cast	-5701
▁cock	-5702
▁cong	-5703
▁forb	-5704
▁infl	-5705
▁lads	-5706
▁laid	-5707
▁meas	-5708
▁ment	-5709
▁mile	-5710
▁myst	-5711
▁rang	-5712
▁rush	-5713
▁rust	-5714
▁sees	-5715
▁serv	-5716
▁zero	-5717
colate	-5718
iously	-5719
leston	-5720
vision	-5721
▁Aunty	-5722
▁Bonzo	-5723
▁Break	-5724
▁Bruce	-5725
▁Flint	-5726
▁Force	-5727
▁Going	-5728
▁Gonna	-5729
▁Guard	-5730
▁Hatto	-5731
▁Haven	-5732
▁Offic	-5733
▁Rosie	-5734
▁SCREE	-5735
▁Sally	-5736
▁TIRES	-5737
▁armed	-5738
▁avail	-5739
▁awake	-5740
▁awful	-5741
▁blows	-5742
▁boars	-5743
▁bread	-5744
▁chain	-5745
▁conse	-5746
▁deter	-5747
▁falls	-5748
▁frame	-5749
▁image	-5750
▁kinda	-5751
▁madam	-5752
▁major	-5753
▁mustn	-5754
▁plant	-5755
▁pride	-5756
▁royal	-5757
▁shine	-5758
▁smoke	-5759
▁spell	-5760
▁squad	-5761
▁squee	-5762
▁stock	-5763
▁stood	-5764
▁tears	-5765
▁threw	-5766
▁totem	-5767
▁trail	-5768
▁veget	-5769
ambling	-5770
enhagen	-5771
version	-5772
▁10,000	-5773
▁Barbar	-5774
▁Becket	-5775
▁FRENCH	-5776
▁HANNAH	-5777
▁Harper	-5778
▁Island	-5779
▁Madame	-5780
▁Russia	-5781
▁Second	-5782
▁Target	-5783
▁actual	-5784
▁burned	-5785
▁buying	-5786
▁chased	-5787
▁client	-5788
▁descri	-5789
▁earned	-5790
▁engage	-5791
▁fright	-5792
▁gentle	-5793
▁honour	-5794
▁houses	-5795
▁humili	-5796
▁indust	-5797
▁issues	-5798
▁kicked	-5799
▁loaded	-5800
▁muscle	-5801
▁nights	-5802
▁papers	-5803
▁placed	-5804
▁pounds	-5805
▁rights	-5806
▁ruined	-5807
▁silver	-5808
▁slowly	-5809
▁spread	-5810
▁squirt	-5811
▁switch	-5812
▁tattoo	-5813
▁temple	-5814
▁thrill	-5815
▁throne	-5816
▁wheels	-5817
▁Anybody	-5818
▁Besides	-5819
▁Formics	-5820
▁Germany	-5821
▁Himmler	-5822
▁Imagine	-5823
▁Mujinju	-5824
▁Perfect	-5825
▁Prepare	-5826
▁Shouldn	-5827
▁ashamed	-5828
▁attract	-5829
▁cameras	-5830
▁carried	-5831
▁challen	-5832
▁chances	-5833
▁cooking	-5834
▁dealing	-5835
▁destiny	-5836
▁develop	-5837
▁engaged	-5838
▁environ	-5839
▁healthy	-5840
▁magical	-5841
▁marshal	-5842
▁massive	-5843
▁moments	-5844
▁opinion	-5845
▁privile	-5846
▁reports	-5847
▁sheriff	-5848
▁speaker	-5849
▁stomach	-5850
▁watched	-5851
▁whoever	-5852
▁writing	-5853
hattering	-5854
▁SPEAKERS	-5855
▁captured	-5856
▁horrible	-5857
▁humanity	-5858
▁laughing	-5859
▁messages	-5860
▁monsters	-5861
▁movement	-5862
▁mutation	-5863
▁opposite	-5864
▁politics	-5865
▁protocol	-5866
▁studying	-5867
▁according	-5868
▁apologize	-5869
▁breakfast	-5870
▁community	-5871
▁countries	-5872
▁decisions	-5873
▁extremely	-5874
▁insurance	-5875
▁knowledge	-5876
▁lightning	-5877
▁transport	-5878
▁Apparently	-5879
▁Charleston	-5880
▁Copenhagen	-5881
▁helicopter	-5882
▁successful	-5883
▁authorities	-5884
▁coordinates	-5885
▁investigation	-5886
0,	-5887
11	-5888
BI	-5889
CU	-5890
UD	-5891
ek	-5892
CTR	-5893
HAL	-5894
IAN	-5895
asw	-5896
bro	-5897
dra	-5898
eau	-5899
era	-5900
gel	-5901
hei	-5902
isa	-5903
ita	-5904
jan	-5905
ndy	-5906
omp	-5907
oms	-5908
pol	-5909
ram	-5910
raq	-5911
ste	-5912
won	-5913
▁Ac	-5914
▁FR	-5915
▁Ms	-5916
▁Ob	-5917
▁au	-5918
▁ja	-5919
IREN	-5920
OUNC	-5921
acon	-5922
ayel	-5923
eaks	-5924
emet	-5925
hant	-5926
ilty	-5927
kind	-5928
koto	-5929
quar	-5930
raki	-5931
rict	-5932
vior	-5933
what	-5934
▁400	-5935
▁BRE	-5936
▁Bad	-5937
▁Cal	-5938
▁Emp	-5939
▁Ent	-5940
▁Jor	-5941
▁Kol	-5942
▁LET	-5943
▁Mil	-5944
▁Mus	-5945
▁Ned	-5946
▁Sic	-5947
▁TOO	-5948
▁Tig	-5949
▁WAS	-5950
▁ape	-5951
▁cad	-5952
▁den	-5953
▁eld	-5954
▁fle	-5955
▁hyp	-5956
▁inn	-5957
▁rup	-5958
▁sew	-5959
▁sym	-5960
▁toy	-5961
▁unt	-5962
0,000	-5963
ATING	-5964
HALES	-5965
Keefe	-5966
alled	-5967
alley	-5968
ances	-5969
bbing	-5970
earch	-5971
ician	-5972
iling	-5973
otted	-5974
strup	-5975
umber	-5976
uries	-5977
▁Care	-5978
▁Conn	-5979
▁Doth	-5980
▁Each	-5981
▁Eliz	-5982
▁Fort	-5983
▁Iraq	-5984
▁Kang	-5985
▁Karl	-5986
▁Kind	-5987
▁Know	-5988
▁LIFE	-5989
▁MATE	-5990
▁Main	-5991
▁Mars	-5992
▁Mess	-5993
▁Mith	-5994
▁Rale	-5995
▁Till	-5996
▁WHIR	-5997
▁WIND	-5998
▁boar	-5999
▁caps	-6000
▁cart	-6001
▁cave	-6002
▁coat	-6003
▁exer	-6004
▁flag	-6005
▁insp	-6006
▁item	-6007
▁lake	-6008
▁meal	-6009
▁mule	-6010
▁prof	-6011
▁pupp	-6012
▁rope	-6013
▁sear	-6014
▁stab	-6015
▁stat	-6016
▁summ	-6017
▁tank	-6018
▁task	-6019
▁toil	-6020
▁unit	-6021
▁wash	-6022
▁wipe	-6023
▁wise	-6024
aswati	-6025
attles	-6026
engers	-6027
inated	-6028
ivered	-6029
omeday	-6030
overed	-6031
perate	-6032
▁Beaut	-6033
▁Blanc	-6034
▁Brown	-6035
▁Chris	-6036
▁Count	-6037
▁Delta	-6038
▁Fleet	-6039
▁Japan	-6040
▁Judah	-6041
▁Maker	-6042
▁Miche	-6043
▁Power	-6044
▁Reich	-6045
▁SIREN	-6046
▁Tatsu	-6047
▁Wendy	-6048
▁avoid	-6049
▁blade	-6050
▁blank	-6051
▁bored	-6052
▁chuck	-6053
▁citiz	-6054
▁clown	-6055
▁consp	-6056
▁flood	-6057
▁fully	-6058
▁holds	-6059
▁imper	-6060
▁miser	-6061
▁moron	-6062
▁negot	-6063
▁occur	-6064
▁recon	-6065
▁recru	-6066
▁rough	-6067
▁solve	-6068
▁tires	-6069
▁tower	-6070
▁whist	-6071
▁whore	-6072
cellent	-6073
ception	-6074
irement	-6075
itional	-6076
looking	-6077
sidered	-6078
▁Alfred	-6079
▁Crater	-6080
▁Danish	-6081
▁ELECTR	-6082
▁Greeks	-6083
▁Martha	-6084
▁Missus	-6085
▁Okkoto	-6086
▁Riddle	-6087
▁Sawyer	-6088
▁Sicily	-6089
▁Sunday	-6090
▁avenge	-6091
▁backup	-6092
▁borrow	-6093
▁broker	-6094
▁caused	-6095
▁clicks	-6096
▁commer	-6097
▁compat	-6098
▁cousin	-6099
▁crisis	-6100
▁dollar	-6101
▁fellas	-6102
▁harder	-6103
▁invent	-6104
▁mighty	-6105
▁mortal	-6106
▁nothin	-6107
▁pilots	-6108
▁punish	-6109
▁simply	-6110
▁surviv	-6111
▁temper	-6112
▁tempor	-6113
▁theory	-6114
▁visual	-6115
▁wanker	-6116
▁worlds	-6117
▁ANNOUNC	-6118
▁Bristol	-6119
▁Capitol	-6120
▁Dufayel	-6121
▁Getting	-6122
▁HONKING	-6123
▁However	-6124
▁Landing	-6125
▁Promise	-6126
▁Raleigh	-6127
▁Speaker	-6128
▁Steiner	-6129
▁Tonight	-6130
▁Whoever	-6131
▁Windows	-6132
▁appears	-6133
▁chamber	-6134
▁confess	-6135
▁covered	-6136
▁divorce	-6137
▁dressed	-6138
▁engines	-6139
▁example	-6140
▁grounds	-6141
▁honored	-6142
▁inspect	-6143
▁newborn	-6144
▁offline	-6145
▁predict	-6146
▁provide	-6147
▁regular	-6148
▁respond	-6149
▁sisters	-6150
▁surface	-6151
▁traffic	-6152
▁treated	-6153
▁worries	-6154
▁Dothraki	-6155
▁Mountain	-6156
▁Victoria	-6157
▁bollocks	-6158
▁campaign	-6159
▁carrying	-6160
▁checking	-6161
▁cleaning	-6162
▁designed	-6163
▁distract	-6164
▁exciting	-6165
▁football	-6166
▁grateful	-6167
▁guardian	-6168
▁officers	-6169
▁partners	-6170
▁precious	-6171
▁schedule	-6172
▁shoulder	-6173
▁sometime	-6174
▁Elizabeth	-6175
▁Kongstrup	-6176
▁Saraswati	-6177
▁Seriously	-6178
▁available	-6179
▁barbarian	-6180
▁equipment	-6181
▁including	-6182
▁ironworks	-6183
▁literally	-6184
▁neighbour	-6185
▁political	-6186
▁requested	-6187
▁screaming	-6188
▁suspended	-6189
▁Metropolis	-6190
▁considered	-6191
▁approaching	-6192
▁comfortable	-6193
▁embarrassed	-6194
▁environment	-6195
▁INDISTINCTLY	-6196
▁relationship	-6197
2,	-6198
4.	-6199
OD	-6200
UE	-6201
cr	-6202
cu	-6203
ei	-6204
rm	-6205
vy	-6206
ART	-6207
ASS	-6208
BLE	-6209
CLA	-6210
COR	-6211
INK	-6212
OCK	-6213
The	-6214
USE	-6215
VEN	-6216
ani	-6217
apa	-6218
enz	-6219
ggs	-6220
hol	-6221
hop	-6222
ibr	-6223
igg	-6224
jay	-6225
off	-6226
omm	-6227
orb	-6228
sha	-6229
uct	-6230
uge	-6231
uno	-6232
ups	-6233
▁2.	-6234
▁FA	-6235
▁Ly	-6236
▁PR	-6237
▁Sa	-6238
▁TR	-6239
▁Ta	-6240
▁UN	-6241
▁bi	-6242
▁ok	-6243
▁yo	-6244
PING	-6245
ader	-6246
aint	-6247
alth	-6248
anch	-6249
arks	-6250
bird	-6251
bout	-6252
cast	-6253
eper	-6254
inet	-6255
lies	-6256
mark	-6257
onus	-6258
oric	-6259
sers	-6260
unge	-6261
unts	-6262
zing	-6263
▁Ann	-6264
▁Aug	-6265
▁Aut	-6266
▁Bat	-6267
▁Bax	-6268
▁Eat	-6269
▁Gal	-6270
▁Ham	-6271
▁Inc	-6272
▁JOB	-6273
▁Kee	-6274
▁Lot	-6275
▁Off	-6276
▁Pop	-6277
▁Pou	-6278
▁ROY	-6279
▁Ray	-6280
▁Roy	-6281
▁SAY	-6282
▁Sav	-6283
▁Sea	-6284
▁Sen	-6285
▁Sof	-6286
▁Tun	-6287
▁Use	-6288
▁boo	-6289
▁cig	-6290
▁nah	-6291
▁nur	-6292
▁obl	-6293
▁pow	-6294
▁roo	-6295
▁san	-6296
▁shy	-6297
▁spy	-6298
▁ult	-6299
▁unc	-6300
CLAIM	-6301
acing	-6302
ardon	-6303
arian	-6304
arily	-6305
cover	-6306
ented	-6307
field	-6308
hange	-6309
hetic	-6310
itors	-6311
ograp	-6312
oming	-6313
peror	-6314
riors	-6315
usive	-6316
vable	-6317
while	-6318
▁Dick	-6319
▁Dude	-6320
▁Emer	-6321
▁Fast	-6322
▁Gold	-6323
▁HAVE	-6324
▁Jade	-6325
▁Jane	-6326
▁Kwon	-6327
▁Lisa	-6328
▁Luke	-6329
▁Meet	-6330
▁Much	-6331
▁NAME	-6332
▁Name	-6333
▁Road	-6334
▁Room	-6335
▁SHOU	-6336
▁Stri	-6337
▁Targ	-6338
▁Worm	-6339
▁ador	-6340
▁anti	-6341
▁asks	-6342
▁asso	-6343
▁aunt	-6344
▁blah	-6345
▁bone	-6346
▁cand	-6347
▁cats	-6348
▁chat	-6349
▁coup	-6350
▁cult	-6351
▁cunt	-6352
▁cure	-6353
▁dawn	-6354
▁eggs	-6355
▁fart	-6356
▁frag	-6357
▁fulf	-6358
▁goat	-6359
▁hire	-6360
▁laun	-6361
▁meat	-6362
▁melt	-6363
▁odds	-6364
▁page	-6365
▁pair	-6366
▁pizz	-6367
▁prem	-6368
▁pros	-6369
▁role	-6370
▁ruin	-6371
▁seek	-6372
▁sequ	-6373
▁sett	-6374
▁suck	-6375
▁tied	-6376
▁wide	-6377
▁yard	-6378
aching	-6379
icians	-6380
illery	-6381
tering	-6382
unting	-6383
verage	-6384
▁Alpha	-6385
▁Bravo	-6386
▁David	-6387
▁Enjoy	-6388
▁GASPS	-6389
▁Lloyd	-6390
▁Makes	-6391
▁Sanja	-6392
▁Smart	-6393
▁Stenz	-6394
▁Tommy	-6395
▁Water	-6396
▁Widow	-6397
▁await	-6398
▁begun	-6399
▁cards	-6400
▁cargo	-6401
▁cemet	-6402
▁chaos	-6403
▁compl	-6404
▁condu	-6405
▁docum	-6406
▁drill	-6407
▁gates	-6408
▁grief	-6409
▁heads	-6410
▁inher	-6411
▁issue	-6412
▁kills	-6413
▁lands	-6414
▁naked	-6415
▁noise	-6416
▁print	-6417
▁relig	-6418
▁rogue	-6419
▁sharp	-6420
▁skull	-6421
▁sneak	-6422
▁souls	-6423
▁spark	-6424
▁trace	-6425
▁value	-6426
▁waves	-6427
▁wheel	-6428
itation	-6429
▁August	-6430
▁CLICKS	-6431
▁Contin	-6432
▁Davide	-6433
▁Either	-6434
▁Faster	-6435
▁Keegan	-6436
▁Middle	-6437
▁Milady	-6438
▁Scream	-6439
▁Turkey	-6440
▁Wouldn	-6441
▁ancest	-6442
▁beacon	-6443
▁begins	-6444
▁carbon	-6445
▁chosen	-6446
▁circus	-6447
▁clouds	-6448
▁collap	-6449
▁collea	-6450
▁compan	-6451
▁deeply	-6452
▁deploy	-6453
▁design	-6454
▁events	-6455
▁jumped	-6456
▁latest	-6457
▁laughs	-6458
▁modern	-6459
▁period	-6460
▁photos	-6461
▁potato	-6462
▁powers	-6463
▁propos	-6464
▁rabbit	-6465
▁repres	-6466
▁resour	-6467
▁runway	-6468
▁rupees	-6469
▁shitty	-6470
▁slaves	-6471
▁social	-6472
▁steady	-6473
▁strate	-6474
▁territ	-6475
▁tunnel	-6476
▁vision	-6477
ATTERING	-6478
quarters	-6479
▁Addison	-6480
▁Already	-6481
▁Baxford	-6482
▁Looking	-6483
▁Persian	-6484
▁Playing	-6485
▁Poulain	-6486
▁Targary	-6487
▁Thought	-6488
▁Tigress	-6489
▁century	-6490
▁complex	-6491
▁cutting	-6492
▁depends	-6493
▁farmers	-6494
▁formula	-6495
▁fortune	-6496
▁handsha	-6497
▁impress	-6498
▁invited	-6499
▁jaegers	-6500
▁jewelry	-6501
▁kicking	-6502
▁laundry	-6503
▁madness	-6504
▁mankind	-6505
▁picking	-6506
▁pleased	-6507
▁protest	-6508
▁restaur	-6509
▁ringing	-6510
▁screwed	-6511
▁silence	-6512
▁striker	-6513
▁swallow	-6514
▁therapy	-6515
▁tickets	-6516
▁trading	-6517
▁trainee	-6518
▁trusted	-6519
▁victory	-6520
▁CLICKING	-6521
▁Consider	-6522
▁Crateros	-6523
▁Interpol	-6524
▁activity	-6525
▁adorable	-6526
▁assholes	-6527
▁cemetery	-6528
▁changing	-6529
▁convince	-6530
▁declared	-6531
▁electric	-6532
▁entirely	-6533
▁gambling	-6534
▁maintain	-6535
▁neighbor	-6536
▁occasion	-6537
▁official	-6538
▁romantic	-6539
▁starving	-6540
▁stations	-6541
▁transfer	-6542
▁transmit	-6543
▁ANNOUNCER	-6544
▁Beautiful	-6545
▁Cassander	-6546
▁Francisco	-6547
▁Meanwhile	-6548
▁Worldwide	-6549
▁briefcase	-6550
▁chocolate	-6551
▁connected	-6552
▁delivered	-6553
▁emotional	-6554
▁formation	-6555
▁protected	-6556
▁radiation	-6557
▁suffering	-6558
▁surprised	-6559
▁Macedonian	-6560
▁passengers	-6561
▁population	-6562
▁remembered	-6563
▁retirement	-6564
▁revolution	-6565
▁complicated	-6566
▁compromised	-6567
▁destruction	-6568
▁disappointed	-6569
▁headquarters	-6570
▁professional	-6571
▁surveillance	-6572
5,	-6573
AP	-6574
LI	-6575
SH	-6576
UL	-6577
ev	-6578
ga	-6579
ASA	-6580
Ant	-6581
ILY	-6582
Man	-6583
ada	-6584
ali	-6585
bow	-6586
dro	-6587
eer	-6588
esy	-6589
fly	-6590
gic	-6591
hel	-6592
hob	-6593
hor	-6594
kim	-6595
pse	-6596
rad	-6597
sex	-6598
tes	-6599
ube	-6600
vis	-6601
yro	-6602
▁3.	-6603
▁5.	-6604
▁Pt	-6605
▁Wr	-6606
▁ah	-6607
▁ut	-6608
OMET	-6609
RACK	-6610
RING	-6611
aded	-6612
adev	-6613
agle	-6614
aire	-6615
atin	-6616
away	-6617
earl	-6618
ethe	-6619
ette	-6620
fell	-6621
gypt	-6622
ille	-6623
imal	-6624
issa	-6625
ivid	-6626
lymp	-6627
ourt	-6628
path	-6629
pent	-6630
ques	-6631
raph	-6632
rier	-6633
then	-6634
uite	-6635
urai	-6636
ware	-6637
ysus	-6638
▁195	-6639
▁300	-6640
▁Ara	-6641
▁Aye	-6642
▁Cad	-6643
▁Cat	-6644
▁Dro	-6645
▁Elf	-6646
▁Fly	-6647
▁Gen	-6648
▁Gov	-6649
▁Ins	-6650
▁Lab	-6651
▁Lie	-6652
▁Mau	-6653
▁Nic	-6654
▁Nin	-6655
▁PET	-6656
▁PRO	-6657
▁Pak	-6658
▁Pay	-6659
▁Rod	-6660
▁Sky	-6661
▁Sto	-6662
▁TAL	-6663
▁Tay	-6664
▁Ted	-6665
▁Tol	-6666
▁Tot	-6667
▁Vic	-6668
▁Yet	-6669
▁coo	-6670
▁cos	-6671
▁dah	-6672
▁eff	-6673
▁fab	-6674
▁gay	-6675
▁kil	-6676
▁mic	-6677
▁tim	-6678
▁tip	-6679
▁tit	-6680
▁tum	-6681
▁unf	-6682
▁var	-6683
Anton	-6684
agoas	-6685
amond	-6686
anced	-6687
antly	-6688
arsha	-6689
chief	-6690
cohol	-6691
enger	-6692
ilies	-6693
ilthy	-6694
incip	-6695
iplom	-6696
itaka	-6697
ivity	-6698
lines	-6699
olemy	-6700
stern	-6701
uckoo	-6702
ulate	-6703
▁2...	-6704
▁Alai	-6705
▁Auto	-6706
▁Bank	-6707
▁Bear	-6708
▁Beng	-6709
▁Bull	-6710
▁Calm	-6711
▁Dion	-6712
▁Eret	-6713
▁Face	-6714
▁Fear	-6715
▁Fire	-6716
▁Glad	-6717
▁Into	-6718
▁KEEP	-6719
▁Khal	-6720
▁Land	-6721
▁Luci	-6722
▁MACH	-6723
▁Mija	-6724
▁Moro	-6725
▁ONLY	-6726
▁Page	-6727
▁Post	-6728
▁acts	-6729
▁bart	-6730
▁chem	-6731
▁dont	-6732
▁doub	-6733
▁duck	-6734
▁exam	-6735
▁exha	-6736
▁foul	-6737
▁gain	-6738
▁goin	-6739
▁hipp	-6740
▁jerk	-6741
▁liar	-6742
▁lips	-6743
▁mast	-6744
▁oath	-6745
▁outp	-6746
▁pers	-6747
▁prec	-6748
▁sexy	-6749
▁shoe	-6750
▁sins	-6751
▁sole	-6752
▁soup	-6753
▁tear	-6754
▁tech	-6755
▁term	-6756
▁tiny	-6757
▁turb	-6758
▁ware	-6759
apping	-6760
atrice	-6761
avalry	-6762
inging	-6763
nessee	-6764
rences	-6765
ulator	-6766
vinced	-6767
▁ABOUT	-6768
▁Again	-6769
▁BREAT	-6770
▁Bible	-6771
▁Daily	-6772
▁Delhi	-6773
▁Donna	-6774
▁Egypt	-6775
▁Essex	-6776
▁Exact	-6777
▁Front	-6778
▁Gotta	-6779
▁Honey	-6780
▁Music	-6781
▁Olymp	-6782
▁Pilot	-6783
▁SOMET	-6784
▁Throw	-6785
▁Titan	-6786
▁Tyler	-6787
▁WANNA	-6788
▁angel	-6789
▁armor	-6790
▁ashes	-6791
▁belly	-6792
▁blown	-6793
▁bones	-6794
▁brill	-6795
▁chari	-6796
▁cheap	-6797
▁coinc	-6798
▁color	-6799
▁daily	-6800
▁debts	-6801
▁delic	-6802
▁disob	-6803
▁fetch	-6804
▁fever	-6805
▁flank	-6806
▁flash	-6807
▁frank	-6808
▁grows	-6809
▁haunt	-6810
▁hoped	-6811
▁kings	-6812
▁loans	-6813
▁loose	-6814
▁march	-6815
▁motiv	-6816
▁notes	-6817
▁opens	-6818
▁orbit	-6819
▁overr	-6820
▁plate	-6821
▁reass	-6822
▁relay	-6823
▁roast	-6824
▁rooms	-6825
▁sends	-6826
▁smugg	-6827
▁spoke	-6828
▁staff	-6829
▁sweat	-6830
▁tales	-6831
▁teams	-6832
▁thick	-6833
▁wages	-6834
▁widow	-6835
ignment	-6836
innerty	-6837
isphere	-6838
istence	-6839
orgeous	-6840
venture	-6841
▁AROUND	-6842
▁Accord	-6843
▁Amanda	-6844
▁Bagoas	-6845
▁Bloody	-6846
▁Connor	-6847
▁Double	-6848
▁GRUNTS	-6849
▁Galile	-6850
▁Greece	-6851
▁Harbor	-6852
▁Harsha	-6853
▁Hayley	-6854
▁Korean	-6855
▁Mexico	-6856
▁Nicole	-6857
▁Norton	-6858
▁Ranger	-6859
▁Sanjay	-6860
▁Sister	-6861
▁Spirit	-6862
▁Taylor	-6863
▁Thirty	-6864
▁Though	-6865
▁Toljan	-6866
▁Virgin	-6867
▁agency	-6868
▁allies	-6869
▁arrive	-6870
▁attend	-6871
▁behave	-6872
▁bitter	-6873
▁condem	-6874
▁dagger	-6875
▁decent	-6876
▁facing	-6877
▁female	-6878
▁filled	-6879
▁forces	-6880
▁genius	-6881
▁ghosts	-6882
▁groans	-6883
▁guilty	-6884
▁hammer	-6885
▁health	-6886
▁higher	-6887
▁indeed	-6888
▁intend	-6889
▁invite	-6890
▁jammed	-6891
▁killer	-6892
▁landed	-6893
▁marker	-6894
▁mechan	-6895
▁mental	-6896
▁nicely	-6897
▁opened	-6898
▁passes	-6899
▁patter	-6900
▁petrol	-6901
▁pissed	-6902
▁profit	-6903
▁recall	-6904
▁recomm	-6905
▁refuge	-6906
▁refuse	-6907
▁rocket	-6908
▁sacked	-6909
▁silent	-6910
▁stands	-6911
▁summer	-6912
▁summit	-6913
▁techni	-6914
▁termin	-6915
▁toilet	-6916
▁wasted	-6917
▁wounds	-6918
▁Alexand	-6919
▁Hermann	-6920
▁Heywood	-6921
▁Instead	-6922
▁Kingdom	-6923
▁Melissa	-6924
▁Ptolemy	-6925
▁acceler	-6926
▁alcohol	-6927
▁bangles	-6928
▁battles	-6929
▁capsule	-6930
▁charges	-6931
▁cigaret	-6932
▁concern	-6933
▁consent	-6934
▁consequ	-6935
▁counter	-6936
▁dancing	-6937
▁dreamed	-6938
▁escaped	-6939
▁happily	-6940
▁hurting	-6941
▁mystery	-6942
▁offense	-6943
▁offices	-6944
▁passion	-6945
▁precise	-6946
▁quietly	-6947
▁shocked	-6948
▁someday	-6949
▁sweetie	-6950
▁systems	-6951
▁touched	-6952
▁traitor	-6953
▁vehicle	-6954
▁workers	-6955
▁wounded	-6956
struction	-6957
▁Beatrice	-6958
▁Dionysus	-6959
▁Finnerty	-6960
▁Karlsson	-6961
▁Overlook	-6962
▁Pakistan	-6963
▁Speaking	-6964
▁Tatsuhei	-6965
▁Wormhole	-6966
▁announce	-6967
▁creature	-6968
▁director	-6969
▁dreaming	-6970
▁exchange	-6971
▁executed	-6972
▁exercise	-6973
▁honestly	-6974
▁imperial	-6975
▁increase	-6976
▁industry	-6977
▁invasion	-6978
▁material	-6979
▁mistaken	-6980
▁national	-6981
▁positive	-6982
▁potatoes	-6983
▁presence	-6984
▁progress	-6985
▁relative	-6986
▁response	-6987
▁searched	-6988
▁selected	-6989
▁sequence	-6990
▁shouting	-6991
▁signific	-6992
▁specific	-6993
▁spending	-6994
▁stranger	-6995
▁strategy	-6996
▁tracking	-6997
▁treating	-6998
▁weakness	-6999
▁Americans	-7000
▁Attention	-7001
▁Detective	-7002
▁Endurance	-7003
▁SOMETHING	-7004
▁Tennessee	-7005
▁Transport	-7006
▁agreement	-7007
▁ancestors	-7008
▁artillery	-7009
▁bartender	-7010
▁brilliant	-7011
▁buildings	-7012
▁civilians	-7013
▁direction	-7014
▁expensive	-7015
▁explosion	-7016
▁gathering	-7017
▁immediate	-7018
▁interrupt	-7019
▁promotion	-7020
▁remaining	-7021
▁territory	-7022
▁Kryptonian	-7023
▁Winterfell	-7024
▁capitalism	-7025
▁commercial	-7026
▁department	-7027
▁dimensions	-7028
▁especially	-7029
▁forgetting	-7030
▁officially	-7031
▁practicing	-7032
▁psychopath	-7033
▁television	-7034
▁terrorists	-7035
▁communicate	-7036
▁questioning	-7037
▁fingerprints	-7038
▁intelligence	-7039
-5	-7040
AK	-7041
CA	-7042
EE	-7043
OV	-7044
da	-7045
ds	-7046
jo	-7047
of	-7048
ua	-7049
ux	-7050
uz	-7051
▁x	-7052
DER	-7053
ITY	-7054
OOT	-7055
OTT	-7056
OWN	-7057
PER	-7058
ROA	-7059
UNN	-7060
abb	-7061
bed	-7062
but	-7063
hav	-7064
hma	-7065
ida	-7066
ipp	-7067
iro	-7068
ols	-7069
oty	-7070
rac	-7071
ras	-7072
uin	-7073
uit	-7074
war	-7075
xas	-7076
▁35	-7077
▁IR	-7078
▁Kn	-7079
▁MO	-7080
▁Mm	-7081
▁PU	-7082
▁ec	-7083
▁ep	-7084
▁fe	-7085
▁gy	-7086
1...	-7087
ATER	-7088
BING	-7089
THER	-7090
What	-7091
akul	-7092
alse	-7093
aray	-7094
asty	-7095
atab	-7096
bble	-7097
bell	-7098
ders	-7099
each	-7100
elve	-7101
enna	-7102
ermo	-7103
fend	-7104
gage	-7105
geir	-7106
hips	-7107
icip	-7108
igar	-7109
ilar	-7110
iled	-7111
isle	-7112
keys	-7113
lein	-7114
lete	-7115
otas	-7116
othy	-7117
ouch	-7118
phew	-7119
reck	-7120
rels	-7121
resp	-7122
semb	-7123
uddy	-7124
unny	-7125
utch	-7126
vere	-7127
wing	-7128
▁10.	-7129
▁Ava	-7130
▁Boo	-7131
▁CHO	-7132
▁Cou	-7133
▁DNA	-7134
▁Dep	-7135
▁Dor	-7136
▁Fat	-7137
▁Fed	-7138
▁JOE	-7139
▁Lau	-7140
▁Los	-7141
▁NOR	-7142
▁PUT	-7143
▁REA	-7144
▁SEE	-7145
▁Set	-7146
▁Sum	-7147
▁Top	-7148
▁alt	-7149
▁cri	-7150
▁din	-7151
▁dom	-7152
▁ens	-7153
▁fif	-7154
▁joy	-7155
▁ket	-7156
▁mil	-7157
▁nan	-7158
▁ple	-7159
▁por	-7160
▁ray	-7161
▁ves	-7162
▁wha	-7163
▁wra	-7164
CAUSE	-7165
alian	-7166
aming	-7167
andom	-7168
arter	-7169
ceive	-7170
ckets	-7171
erves	-7172
gment	-7173
grade	-7174
harge	-7175
heads	-7176
ignon	-7177
inery	-7178
ishes	-7179
olved	-7180
oning	-7181
oored	-7182
orann	-7183
rades	-7184
secut	-7185
stage	-7186
stein	-7187
steps	-7188
uable	-7189
umbai	-7190
urden	-7191
▁3...	-7192
▁BLOW	-7193
▁Blow	-7194
▁Blue	-7195
▁Bobo	-7196
▁Burn	-7197
▁Chow	-7198
▁DIST	-7199
▁Fury	-7200
▁Govt	-7201
▁Jake	-7202
▁Lots	-7203
▁NASA	-7204
▁News	-7205
▁Nine	-7206
▁Pass	-7207
▁Prov	-7208
▁Real	-7209
▁Rest	-7210
▁STAR	-7211
▁Sing	-7212
▁Sudd	-7213
▁Supp	-7214
▁Wasn	-7215
▁acqu	-7216
▁anom	-7217
▁blog	-7218
▁bold	-7219
▁buff	-7220
▁cann	-7221
▁caut	-7222
▁cert	-7223
▁chim	-7224
▁clan	-7225
▁coal	-7226
▁coin	-7227
▁diet	-7228
▁ease	-7229
▁econ	-7230
▁eter	-7231
▁fans	-7232
▁hits	-7233
▁kung	-7234
▁mood	-7235
▁nail	-7236
▁nick	-7237
▁pant	-7238
▁pour	-7239
▁puff	-7240
▁qual	-7241
▁quid	-7242
▁rage	-7243
▁sale	-7244
▁shed	-7245
▁stub	-7246
▁tape	-7247
▁thor	-7248
▁toss	-7249
▁virt	-7250
▁wrap	-7251
▁zone	-7252
CLAIMS	-7253
argant	-7254
formed	-7255
iments	-7256
inting	-7257
minist	-7258
ongest	-7259
ormous	-7260
pering	-7261
▁3,000	-7262
▁Appro	-7263
▁Asian	-7264
▁Being	-7265
▁Bless	-7266
▁Bruno	-7267
▁Class	-7268
▁Doyle	-7269
▁Drive	-7270
▁Eskim	-7271
▁Fight	-7272
▁Hands	-7273
▁Harry	-7274
▁Hotel	-7275
▁Kevin	-7276
▁Krish	-7277
▁Mount	-7278
▁Naray	-7279
▁Plane	-7280
▁STOPS	-7281
▁Silas	-7282
▁Sofus	-7283
▁Squad	-7284
▁Swann	-7285
▁Terry	-7286
▁Texas	-7287
▁Tracy	-7288
▁WHERE	-7289
▁Wenck	-7290
▁Woman	-7291
▁abort	-7292
▁angle	-7293
▁arrow	-7294
▁attor	-7295
▁beads	-7296
▁belie	-7297
▁bride	-7298
▁candy	-7299
▁cases	-7300
▁cerem	-7301
▁champ	-7302
▁charm	-7303
▁chest	-7304
▁chips	-7305
▁cloth	-7306
▁datab	-7307
▁deals	-7308
▁exams	-7309
▁faced	-7310
▁feast	-7311
▁funds	-7312
▁goods	-7313
▁goose	-7314
▁grass	-7315
▁guest	-7316
▁holes	-7317
▁joint	-7318
▁knees	-7319
▁legit	-7320
▁lined	-7321
▁loads	-7322
▁metal	-7323
▁nasty	-7324
▁noble	-7325
▁patch	-7326
▁sandw	-7327
▁scavs	-7328
▁sgeir	-7329
▁shape	-7330
▁sheep	-7331
▁slave	-7332
▁slept	-7333
▁slide	-7334
▁spear	-7335
▁steak	-7336
▁sunny	-7337
▁tanks	-7338
▁trash	-7339
▁unite	-7340
▁walks	-7341
▁wiped	-7342
Antonio	-7343
issions	-7344
keeping	-7345
lection	-7346
ravinda	-7347
respect	-7348
versity	-7349
▁APPROA	-7350
▁Davina	-7351
▁Denver	-7352
▁Flight	-7353
▁Honest	-7354
▁Launch	-7355
▁Lucien	-7356
▁Marina	-7357
▁Mumbai	-7358
▁Ninety	-7359
▁Persia	-7360
▁Planet	-7361
▁SHOULD	-7362
▁Sevent	-7363
▁Square	-7364
▁Stoick	-7365
▁Sweden	-7366
▁Valent	-7367
▁agents	-7368
▁asthma	-7369
▁batter	-7370
▁beaten	-7371
▁burden	-7372
▁butter	-7373
▁career	-7374
▁colony	-7375
▁consum	-7376
▁damned	-7377
▁defeat	-7378
▁determ	-7379
▁device	-7380
▁diplom	-7381
▁drives	-7382
▁duties	-7383
▁ending	-7384
▁expert	-7385
▁export	-7386
▁firing	-7387
▁fourth	-7388
▁fucker	-7389
▁hendry	-7390
▁impact	-7391
▁kindly	-7392
▁messed	-7393
▁mostly	-7394
▁motion	-7395
▁nephew	-7396
▁proced	-7397
▁repair	-7398
▁resign	-7399
▁reward	-7400
▁riding	-7401
▁seemed	-7402
▁sexual	-7403
▁shadow	-7404
▁slight	-7405
▁thirty	-7406
▁useful	-7407
▁vessel	-7408
▁volunt	-7409
▁wealth	-7410
▁writer	-7411
ructions	-7412
▁Antonio	-7413
▁Barbara	-7414
▁British	-7415
▁Careful	-7416
▁Control	-7417
▁Embassy	-7418
▁Exactly	-7419
▁Finally	-7420
▁Grandma	-7421
▁Maureen	-7422
▁Palermo	-7423
▁SOBBING	-7424
▁Walkers	-7425
▁affairs	-7426
▁beneath	-7427
▁blocked	-7428
▁butcher	-7429
▁chariot	-7430
▁checked	-7431
▁classic	-7432
▁convent	-7433
▁counsel	-7434
▁enjoyed	-7435
▁extract	-7436
▁floored	-7437
▁funeral	-7438
▁glasses	-7439
▁granted	-7440
▁hostage	-7441
▁individ	-7442
▁inherit	-7443
▁instrum	-7444
▁kissing	-7445
▁manners	-7446
▁meaning	-7447
▁monitor	-7448
▁options	-7449
▁pushing	-7450
▁realise	-7451
▁rebuild	-7452
▁removed	-7453
▁require	-7454
▁retreat	-7455
▁serving	-7456
▁squeeze	-7457
▁stretch	-7458
▁student	-7459
▁tractor	-7460
▁warning	-7461
▁warrant	-7462
fortunate	-7463
itational	-7464
▁Ashitaka	-7465
▁Holloway	-7466
▁Jonathan	-7467
▁Narayama	-7468
▁Negative	-7469
▁Pentagon	-7470
▁Philotas	-7471
▁SHOUTING	-7472
▁Suddenly	-7473
▁Virginia	-7474
▁WHIRRING	-7475
▁accounts	-7476
▁arranged	-7477
▁behavior	-7478
▁believes	-7479
▁cheating	-7480
▁climbing	-7481
▁concerns	-7482
▁confront	-7483
▁database	-7484
▁defeated	-7485
▁delivery	-7486
▁emotions	-7487
▁equation	-7488
▁families	-7489
▁generous	-7490
▁gorgeous	-7491
▁identify	-7492
▁laughter	-7493
▁normally	-7494
▁ordinary	-7495
▁pathetic	-7496
▁premises	-7497
▁quarters	-7498
▁salesman	-7499
▁shitting	-7500
▁struggle	-7501
▁stubborn	-7502
▁telepath	-7503
▁vacation	-7504
▁valuable	-7505
▁warriors	-7506
▁According	-7507
▁Collignon	-7508
▁Emergency	-7509
▁Hallorann	-7510
▁Valentine	-7511
▁abandoned	-7512
▁bothering	-7513
▁childhood	-7514
▁convinced	-7515
▁creatures	-7516
▁entertain	-7517
▁existence	-7518
▁fantastic	-7519
▁handshake	-7520
▁paperwork	-7521
▁resources	-7522
▁returning	-7523
▁scientist	-7524
▁sgeirsson	-7525
▁signature	-7526
▁suspected	-7527
▁warehouse	-7528
▁Yellowjack	-7529
▁graduation	-7530
▁operations	-7531
▁reasonable	-7532
▁restaurant	-7533
▁surrounded	-7534
▁threatened	-7535
▁APPROACHING	-7536
▁Mithravinda	-7537
▁performance	-7538
▁possibility	-7539
▁practically	-7540
▁consequences	-7541
▁motherfucker	-7542
▁organization	-7543
▁international	-7544
'!	-7545
-0	-7546
1.	-7547
3.	-7548
Am	-7549
IB	-7550
eu	-7551
ex	-7552
gu	-7553
rn	-7554
zh	-7555
..?	-7556
ACK	-7557
ANS	-7558
EAV	-7559
EOP	-7560
ERY	-7561
FFS	-7562
IRL	-7563
ISP	-7564
LED	-7565
REA	-7566
RES	-7567
UEA	-7568
WAY	-7569
You	-7570
asp	-7571
aug	-7572
aus	-7573
bre	-7574
ded	-7575
ffe	-7576
gna	-7577
gun	-7578
hab	-7579
hot	-7580
jen	-7581
ket	-7582
leg	-7583
loc	-7584
nde	-7585
oca	-7586
oot	-7587
ria	-7588
rid	-7589
tin	-7590
uba	-7591
uke	-7592
und	-7593
vil	-7594
who	-7595
▁22	-7596
▁32	-7597
▁4,	-7598
▁45	-7599
▁BR	-7600
▁DR	-7601
▁Da	-7602
▁EY	-7603
▁FL	-7604
▁Id	-7605
▁LE	-7606
▁MI	-7607
▁Mc	-7608
▁Ow	-7609
▁SA	-7610
...!	-7611
ATOR	-7612
DING	-7613
OPER	-7614
agne	-7615
alog	-7616
asha	-7617
berg	-7618
chor	-7619
colm	-7620
fall	-7621
gent	-7622
gers	-7623
ghan	-7624
ghed	-7625
gues	-7626
hend	-7627
ibal	-7628
ighs	-7629
iral	-7630
irts	-7631
itar	-7632
laus	-7633
mbol	-7634
oded	-7635
ollo	-7636
omen	-7637
onor	-7638
onym	-7639
ords	-7640
otty	-7641
ousy	-7642
rors	-7643
ship	-7644
stic	-7645
stit	-7646
swer	-7647
uals	-7648
uary	-7649
uate	-7650
umes	-7651
ungs	-7652
urgl	-7653
ussy	-7654
walk	-7655
▁15.	-7656
▁900	-7657
▁Ape	-7658
▁Ass	-7659
▁BIT	-7660
▁Bro	-7661
▁Cho	-7662
▁DAN	-7663
▁DAR	-7664
▁DRI	-7665
▁Eva	-7666
▁Eve	-7667
▁GUY	-7668
▁Gab	-7669
▁Ice	-7670
▁Jin	-7671
▁Ken	-7672
▁Lee	-7673
▁MET	-7674
▁Ooh	-7675
▁PAN	-7676
▁Pre	-7677
▁Rev	-7678
▁Rio	-7679
▁Rob	-7680
▁SIM	-7681
▁SON	-7682
▁Sch	-7683
▁Sig	-7684
▁Tej	-7685
▁Umm	-7686
▁Val	-7687
▁bes	-7688
▁bum	-7689
▁der	-7690
▁egg	-7691
▁fee	-7692
▁fer	-7693
▁flu	-7694
▁hem	-7695
▁log	-7696
▁mur	-7697
▁neg	-7698
▁pee	-7699
▁rif	-7700
▁row	-7701
▁syn	-7702
▁upd	-7703
▁vul	-7704
BLING	-7705
EOPLE	-7706
PPING	-7707
abama	-7708
acity	-7709
aggot	-7710
ansas	-7711
arded	-7712
ascal	-7713
asses	-7714
belie	-7715
billy	-7716
bound	-7717
cknow	-7718
cumst	-7719
elson	-7720
enced	-7721
essed	-7722
force	-7723
herno	-7724
icago	-7725
icles	-7726
iform	-7727
inger	-7728
ivate	-7729
leine	-7730
onent	-7731
orida	-7732
pathy	-7733
shank	-7734
stasy	-7735
▁1000	-7736
▁Also	-7737
▁Apes	-7738
▁BANG	-7739
▁Bern	-7740
▁CARS	-7741
▁DOWN	-7742
▁Dani	-7743
▁Dest	-7744
▁FORE	-7745
▁GIRL	-7746
▁HAND	-7747
▁HANK	-7748
▁HEAV	-7749
▁HELL	-7750
▁Hail	-7751
▁Heil	-7752
▁Iran	-7753
▁Jeff	-7754
▁July	-7755
▁Jump	-7756
▁Lara	-7757
▁Lawn	-7758
▁Leah	-7759
▁Mand	-7760
▁Mind	-7761
▁Mine	-7762
▁Nago	-7763
▁Nino	-7764
▁Orin	-7765
▁Papa	-7766
▁Sect	-7767
▁Stan	-7768
▁TAKE	-7769
▁Tues	-7770
▁Volt	-7771
▁Wing	-7772
▁ages	-7773
▁amaz	-7774
▁arch	-7775
▁auto	-7776
▁bags	-7777
▁barn	-7778
▁bits	-7779
▁bowl	-7780
▁brut	-7781
▁chap	-7782
▁chop	-7783
▁clue	-7784
▁conc	-7785
▁craz	-7786
▁dise	-7787
▁doin	-7788
▁drum	-7789
▁excl	-7790
▁exit	-7791
▁fare	-7792
▁fest	-7793
▁fist	-7794
▁grie	-7795
▁guar	-7796
▁hack	-7797
▁heir	-7798
▁leaf	-7799
▁mart	-7800
▁mask	-7801
▁memo	-7802
▁mour	-7803
▁nood	-7804
▁pays	-7805
▁pill	-7806
▁pipe	-7807
▁pose	-7808
▁rape	-7809
▁rode	-7810
▁rude	-7811
▁sink	-7812
▁sout	-7813
▁tail	-7814
▁tend	-7815
▁thud	-7816
▁tire	-7817
▁trad	-7818
▁unre	-7819
▁unst	-7820
▁uses	-7821
▁vain	-7822
▁wars	-7823
▁wire	-7824
acific	-7825
angers	-7826
athrow	-7827
entist	-7828
father	-7829
idents	-7830
ifteen	-7831
ipping	-7832
irmary	-7833
orious	-7834
ursday	-7835
usters	-7836
verted	-7837
▁Abort	-7838
▁Amber	-7839
▁Bally	-7840
▁Buddy	-7841
▁COUGH	-7842
▁Catch	-7843
▁Devil	-7844
▁Italy	-7845
▁Junge	-7846
▁Katja	-7847
▁Liber	-7848
▁Lotus	-7849
▁Magic	-7850
▁Maria	-7851
▁Meera	-7852
▁Morse	-7853
▁Mouse	-7854
▁Nancy	-7855
▁PETER	-7856
▁Prime	-7857
▁Renly	-7858
▁Ricci	-7859
▁SHORT	-7860
▁Salam	-7861
▁Sasha	-7862
▁Small	-7863
▁Stick	-7864
▁THINK	-7865
▁Techn	-7866
▁Women	-7867
▁admit	-7868
▁advis	-7869
▁argue	-7870
▁badly	-7871
▁basic	-7872
▁bikes	-7873
▁bills	-7874
▁blink	-7875
▁boats	-7876
▁booth	-7877
▁brick	-7878
▁burns	-7879
▁caret	-7880
▁chill	-7881
▁comin	-7882
▁costs	-7883
▁crawl	-7884
▁crook	-7885
▁crown	-7886
▁cruel	-7887
▁dried	-7888
▁elder	-7889
▁fella	-7890
▁frequ	-7891
▁grace	-7892
▁greed	-7893
▁gross	-7894
▁hates	-7895
▁hears	-7896
▁helps	-7897
▁hesit	-7898
▁homie	-7899
▁hydro	-7900
▁impro	-7901
▁kidna	-7902
▁limit	-7903
▁messy	-7904
▁mixed	-7905
▁motor	-7906
▁niece	-7907
▁nurse	-7908
▁phant	-7909
▁pizza	-7910
▁plays	-7911
▁poker	-7912
▁prest	-7913
▁prize	-7914
▁probe	-7915
▁quant	-7916
▁quote	-7917
▁scary	-7918
▁seats	-7919
▁shave	-7920
▁signs	-7921
▁straw	-7922
▁sucks	-7923
▁sugar	-7924
▁suite	-7925
▁sweep	-7926
▁union	-7927
▁wreck	-7928
▁youth	-7929
ability	-7930
earchus	-7931
hington	-7932
▁	-7933
e	-7934
o	-7935
t	-7936
a	-7937
n	-7938
i	-7939
s	-7940
h	-7941
r	-7942
l	-7943
u	-7944
.	-7945
d	-7946
y	-7947
m	-7948
g	-7949
w	-7950
c	-7951
f	-7952
'	-7953
,	-7954
p	-7955
I	-7956
b	-7957
k	-7958
v	-7959
?	-7960
T	-7961
W	-7962
A	-7963
S	-7964
Y	-7965
H	-7966
!	-7967
N	-7968
O	-7969
M	-7970
E	-7971
C	-7972
D	-7973
L	-7974
B	-7975
G	-7976
R	-7977
j	-7978
P	-7979
-	-7980
F	-7981
x	-7982
U	-7983
J	-7984
K	-7985
0	-7986
z	-7987
1	-7988
q	-7989
V	-7990
2	-7991
5	-7992
3	-7993
4	-7994
9	-7995
